{
  "version": "1.0",
  "truncation": null,
  "padding": null,
  "added_tokens": [
    {
      "id": 0,
      "content": "<pad>",
      "single_word": false,
      "lstrip": false,
      "rstrip": false,
      "normalized": false,
      "special": true
    },
    {
      "id": 1,
      "content": "<bos>",
      "single_word": false,
      "lstrip": false,
      "rstrip": false,
      "normalized": false,
      "special": true
    },
    {
      "id": 2,
      "content": "<eos>",
      "single_word": false,
      "lstrip": false,
      "rstrip": false,
      "normalized": false,
      "special": true
    },
    {
      "id": 3,
      "content": "<unk>",
      "single_word": false,
      "lstrip": false,
      "rstrip": false,
      "normalized": false,
      "special": true
    },
    {
      "id": 4,
      "content": "<tool_call>",
      "single_word": false,
      "lstrip": false,
      "rstrip": false,
      "normalized": false,
      "special": true
    },
    {
      "id": 5,
      "content": "</tool_call>",
      "single_word": false,
      "lstrip": false,
      "rstrip": false,
      "normalized": false,
      "special": true
    },
    {
      "id": 6,
      "content": "<tool_result>",
      "single_word": false,
      "lstrip": false,
      "rstrip": false,
      "normalized": false,
      "special": true
    },
    {
      "id": 7,
      "content": "</tool_result>",
      "single_word": false,
      "lstrip": false,
      "rstrip": false,
      "normalized": false,
      "special": true
    }
  ],
  "normalizer": null,
  "pre_tokenizer": {
    "type": "ByteLevel",
    "add_prefix_space": false,
    "trim_offsets": true,
    "use_regex": true
  },
  "post_processor": {
    "type": "ByteLevel",
    "add_prefix_space": true,
    "trim_offsets": true,
    "use_regex": true
  },
  "decoder": {
    "type": "ByteLevel",
    "add_prefix_space": true,
    "trim_offsets": true,
    "use_regex": true
  },
  "model": {
    "type": "BPE",
    "dropout": null,
    "unk_token": "<unk>",
    "continuing_subword_prefix": null,
    "end_of_word_suffix": null,
    "fuse_unk": false,
    "byte_fallback": false,
    "ignore_merges": false,
    "vocab": {
      "<pad>": 0,
      "<bos>": 1,
      "<eos>": 2,
      "<unk>": 3,
      "<tool_call>": 4,
      "</tool_call>": 5,
      "<tool_result>": 6,
      "</tool_result>": 7,
      "!": 8,
      "\"": 9,
      "#": 10,
      "$": 11,
      "%": 12,
      "&": 13,
      "'": 14,
      "(": 15,
      ")": 16,
      "*": 17,
      "+": 18,
      ",": 19,
      "-": 20,
      ".": 21,
      "/": 22,
      "0": 23,
      "1": 24,
      "2": 25,
      "3": 26,
      "4": 27,
      "5": 28,
      "6": 29,
      "7": 30,
      "8": 31,
      "9": 32,
      ":": 33,
      ";": 34,
      "<": 35,
      "=": 36,
      ">": 37,
      "?": 38,
      "@": 39,
      "A": 40,
      "B": 41,
      "C": 42,
      "D": 43,
      "E": 44,
      "F": 45,
      "G": 46,
      "H": 47,
      "I": 48,
      "J": 49,
      "K": 50,
      "L": 51,
      "M": 52,
      "N": 53,
      "O": 54,
      "P": 55,
      "Q": 56,
      "R": 57,
      "S": 58,
      "T": 59,
      "U": 60,
      "V": 61,
      "W": 62,
      "X": 63,
      "Y": 64,
      "Z": 65,
      "[": 66,
      "\\": 67,
      "]": 68,
      "^": 69,
      "_": 70,
      "`": 71,
      "a": 72,
      "b": 73,
      "c": 74,
      "d": 75,
      "e": 76,
      "f": 77,
      "g": 78,
      "h": 79,
      "i": 80,
      "j": 81,
      "k": 82,
      "l": 83,
      "m": 84,
      "n": 85,
      "o": 86,
      "p": 87,
      "q": 88,
      "r": 89,
      "s": 90,
      "t": 91,
      "u": 92,
      "v": 93,
      "w": 94,
      "x": 95,
      "y": 96,
      "z": 97,
      "{": 98,
      "|": 99,
      "}": 100,
      "~": 101,
      "¡": 102,
      "¢": 103,
      "£": 104,
      "¤": 105,
      "¥": 106,
      "¦": 107,
      "§": 108,
      "¨": 109,
      "©": 110,
      "ª": 111,
      "«": 112,
      "¬": 113,
      "®": 114,
      "¯": 115,
      "°": 116,
      "±": 117,
      "²": 118,
      "³": 119,
      "´": 120,
      "µ": 121,
      "¶": 122,
      "·": 123,
      "¸": 124,
      "¹": 125,
      "º": 126,
      "»": 127,
      "¼": 128,
      "½": 129,
      "¾": 130,
      "¿": 131,
      "À": 132,
      "Á": 133,
      "Â": 134,
      "Ã": 135,
      "Ä": 136,
      "Å": 137,
      "Æ": 138,
      "Ç": 139,
      "È": 140,
      "É": 141,
      "Ê": 142,
      "Ë": 143,
      "Ì": 144,
      "Í": 145,
      "Î": 146,
      "Ï": 147,
      "Ð": 148,
      "Ñ": 149,
      "Ò": 150,
      "Ó": 151,
      "Ô": 152,
      "Õ": 153,
      "Ö": 154,
      "×": 155,
      "Ø": 156,
      "Ù": 157,
      "Ú": 158,
      "Û": 159,
      "Ü": 160,
      "Ý": 161,
      "Þ": 162,
      "ß": 163,
      "à": 164,
      "á": 165,
      "â": 166,
      "ã": 167,
      "ä": 168,
      "å": 169,
      "æ": 170,
      "ç": 171,
      "è": 172,
      "é": 173,
      "ê": 174,
      "ë": 175,
      "ì": 176,
      "í": 177,
      "î": 178,
      "ï": 179,
      "ð": 180,
      "ñ": 181,
      "ò": 182,
      "ó": 183,
      "ô": 184,
      "õ": 185,
      "ö": 186,
      "÷": 187,
      "ø": 188,
      "ù": 189,
      "ú": 190,
      "û": 191,
      "ü": 192,
      "ý": 193,
      "þ": 194,
      "ÿ": 195,
      "Ā": 196,
      "ā": 197,
      "Ă": 198,
      "ă": 199,
      "Ą": 200,
      "ą": 201,
      "Ć": 202,
      "ć": 203,
      "Ĉ": 204,
      "ĉ": 205,
      "Ċ": 206,
      "ċ": 207,
      "Č": 208,
      "č": 209,
      "Ď": 210,
      "ď": 211,
      "Đ": 212,
      "đ": 213,
      "Ē": 214,
      "ē": 215,
      "Ĕ": 216,
      "ĕ": 217,
      "Ė": 218,
      "ė": 219,
      "Ę": 220,
      "ę": 221,
      "Ě": 222,
      "ě": 223,
      "Ĝ": 224,
      "ĝ": 225,
      "Ğ": 226,
      "ğ": 227,
      "Ġ": 228,
      "ġ": 229,
      "Ģ": 230,
      "ģ": 231,
      "Ĥ": 232,
      "ĥ": 233,
      "Ħ": 234,
      "ħ": 235,
      "Ĩ": 236,
      "ĩ": 237,
      "Ī": 238,
      "ī": 239,
      "Ĭ": 240,
      "ĭ": 241,
      "Į": 242,
      "į": 243,
      "İ": 244,
      "ı": 245,
      "Ĳ": 246,
      "ĳ": 247,
      "Ĵ": 248,
      "ĵ": 249,
      "Ķ": 250,
      "ķ": 251,
      "ĸ": 252,
      "Ĺ": 253,
      "ĺ": 254,
      "Ļ": 255,
      "ļ": 256,
      "Ľ": 257,
      "ľ": 258,
      "Ŀ": 259,
      "ŀ": 260,
      "Ł": 261,
      "ł": 262,
      "Ń": 263,
      "Ġt": 264,
      "Ġa": 265,
      "he": 266,
      "in": 267,
      "er": 268,
      "on": 269,
      "Ġthe": 270,
      "re": 271,
      "Ġo": 272,
      "at": 273,
      "Ġs": 274,
      "en": 275,
      "an": 276,
      "es": 277,
      "Ġc": 278,
      "Ġw": 279,
      "is": 280,
      "or": 281,
      "it": 282,
      "ed": 283,
      "al": 284,
      "Ġan": 285,
      "Ġof": 286,
      "Ġp": 287,
      "Ġf": 288,
      "Ġb": 289,
      "ar": 290,
      "Ġin": 291,
      "ing": 292,
      "ic": 293,
      "Ġand": 294,
      "ou": 295,
      "Ġm": 296,
      "ion": 297,
      "Ġto": 298,
      "Ġd": 299,
      "as": 300,
      "le": 301,
      "ro": 302,
      "ent": 303,
      "Ġh": 304,
      "ĠT": 305,
      "il": 306,
      "Ġth": 307,
      "ct": 308,
      "Ġre": 309,
      "om": 310,
      "ĠA": 311,
      "st": 312,
      "Ġe": 313,
      "ĠS": 314,
      "Ġl": 315,
      "el": 316,
      "Ġn": 317,
      "ĠC": 318,
      "ol": 319,
      "et": 320,
      "Ġis": 321,
      "ation": 322,
      "iv": 323,
      "ur": 324,
      "âĢ": 325,
      "ĠI": 326,
      "am": 327,
      "us": 328,
      "ly": 329,
      "id": 330,
      "Ġg": 331,
      "im": 332,
      "ch": 333,
      "ot": 334,
      "Ġ1": 335,
      "ce": 336,
      "Ġbe": 337,
      "ut": 338,
      "ig": 339,
      "ad": 340,
      "ĠM": 341,
      "Ġfor": 342,
      "ĠThe": 343,
      "ow": 344,
      "Ġon": 345,
      "Ġ(": 346,
      "ir": 347,
      "ĠB": 348,
      "un": 349,
      "ers": 350,
      "ĠP": 351,
      "Ġst": 352,
      "ay": 353,
      "Ġthat": 354,
      "ul": 355,
      "Ġas": 356,
      "ith": 357,
      "ra": 358,
      "her": 359,
      "ĠH": 360,
      "ter": 361,
      "ver": 362,
      "Ġwith": 363,
      "em": 364,
      "ĠR": 365,
      "Ġcon": 366,
      "os": 367,
      "Ġal": 368,
      "Ġpro": 369,
      "ist": 370,
      "ĠD": 371,
      "ĠW": 372,
      "Ġy": 373,
      "Ġwh": 374,
      "Ġ2": 375,
      "th": 376,
      "ĠF": 377,
      "Ġwas": 378,
      "if": 379,
      "Ġare": 380,
      "od": 381,
      "Ġit": 382,
      "ve": 383,
      "ĠE": 384,
      "um": 385,
      "Ġor": 386,
      "op": 387,
      "ag": 388,
      "and": 389,
      "ĠL": 390,
      "est": 391,
      "ĠN": 392,
      "ĠG": 393,
      "Ġby": 394,
      "oun": 395,
      "ies": 396,
      "ac": 397,
      "ab": 398,
      "Ġhe": 399,
      "rom": 400,
      "Ġde": 401,
      "ill": 402,
      "Ġcom": 403,
      "Ġv": 404,
      "res": 405,
      "ity": 406,
      "our": 407,
      "ess": 408,
      "ate": 409,
      "Ġat": 410,
      "Ġex": 411,
      "Ġ19": 412,
      "se": 413,
      "00": 414,
      "ain": 415,
      "ĠIn": 416,
      "ore": 417,
      "ect": 418,
      "Ġfrom": 419,
      "oc": 420,
      "ld": 421,
      "Ġr": 422,
      "Ġsu": 423,
      "ant": 424,
      "ment": 425,
      "pp": 426,
      "qu": 427,
      "ĠO": 428,
      "ud": 429,
      "ak": 430,
      "igh": 431,
      "ort": 432,
      "ri": 433,
      "ive": 434,
      "ĠJ": 435,
      "Ġse": 436,
      "ĠâĢ": 437,
      "art": 438,
      "Ġch": 439,
      "ew": 440,
      "all": 441,
      "Ġha": 442,
      "ial": 443,
      "Ġus": 444,
      "âĢĻ": 445,
      "ure": 446,
      "ical": 447,
      "og": 448,
      "ich": 449,
      "Ġun": 450,
      "Ġle": 451,
      "ĠU": 452,
      "'s": 453,
      "Ġ-": 454,
      "ard": 455,
      "Ġnot": 456,
      "Ġcan": 457,
      "ge": 458,
      "ear": 459,
      "pt": 460,
      "ated": 461,
      "end": 462,
      "pe": 463,
      "Ġpl": 464,
      "Ġsh": 465,
      "gh": 466,
      "ia": 467,
      "Ġ\"": 468,
      "ell": 469,
      "ight": 470,
      "ost": 471,
      "ions": 472,
      "Ġk": 473,
      "Ġhave": 474,
      "ther": 475,
      "ust": 476,
      "ian": 477,
      "ine": 478,
      "ast": 479,
      "ber": 480,
      "per": 481,
      "ĠK": 482,
      "ip": 483,
      "Ġwor": 484,
      "Ġthis": 485,
      "Ġab": 486,
      "Ġwhich": 487,
      "ound": 488,
      "ff": 489,
      "ome": 490,
      "ere": 491,
      "ong": 492,
      "Ġyou": 493,
      "ary": 494,
      "ĠSt": 495,
      "der": 496,
      "ough": 497,
      "out": 498,
      "ould": 499,
      "ous": 500,
      "Ġcomp": 501,
      "Ġtheir": 502,
      "are": 503,
      "ĠTh": 504,
      "du": 505,
      "so": 506,
      "act": 507,
      "Ġim": 508,
      "ult": 509,
      "cc": 510,
      "Ġwe": 511,
      "iz": 512,
      "ide": 513,
      "Ġar": 514,
      "ans": 515,
      "Ġwhe": 516,
      "ks": 517,
      "Ġen": 518,
      "Ġinc": 519,
      "ish": 520,
      "Ġhis": 521,
      "ations": 522,
      "ire": 523,
      "Ġwere": 524,
      "Ġcont": 525,
      "ru": 526,
      "age": 527,
      "ence": 528,
      "fer": 529,
      "Ġad": 530,
      "pl": 531,
      "Ġint": 532,
      "ĠCh": 533,
      "Ġhas": 534,
      "ap": 535,
      "Ġ20": 536,
      "Ġall": 537,
      "Ġres": 538,
      "Ġalso": 539,
      "ry": 540,
      "Ġne": 541,
      "ame": 542,
      "ib": 543,
      "mer": 544,
      "ood": 545,
      "ater": 546,
      "ub": 547,
      "Ġthey": 548,
      "Ġcl": 549,
      "av": 550,
      "up": 551,
      "Ġdis": 552,
      "ĠV": 553,
      "orm": 554,
      "vel": 555,
      "ents": 556,
      "ass": 557,
      "Ġ200": 558,
      "ign": 559,
      "ep": 560,
      "ual": 561,
      "Ġte": 562,
      "Ġbut": 563,
      "Ġman": 564,
      "ĠĠ": 565,
      "ces": 566,
      "rit": 567,
      "ach": 568,
      "Ġmore": 569,
      "ie": 570,
      "Ġother": 571,
      "able": 572,
      "ren": 573,
      "ord": 574,
      "ĠIt": 575,
      "ue": 576,
      "ild": 577,
      "Ġone": 578,
      "ok": 579,
      "ice": 580,
      "ov": 581,
      "Ġper": 582,
      "ance": 583,
      "ik": 584,
      "ory": 585,
      "ction": 586,
      "ount": 587,
      "ack": 588,
      "ang": 589,
      "Ġwill": 590,
      "ition": 591,
      "Ġpart": 592,
      "ime": 593,
      "ely": 594,
      "ress": 595,
      "Ġj": 596,
      "Ġsp": 597,
      "ric": 598,
      "Ġyour": 599,
      ").": 600,
      "Ġapp": 601,
      "ĠAn": 602,
      "ĠUn": 603,
      "ens": 604,
      "tern": 605,
      "Ġdo": 606,
      "Ġits": 607,
      "ase": 608,
      "Ġwho": 609,
      "ind": 610,
      "reat": 611,
      "ace": 612,
      "),": 613,
      "Ġtr": 614,
      "own": 615,
      "âĢĿ": 616,
      "Ġme": 617,
      "ĠâĢľ": 618,
      "ĠRe": 619,
      "port": 620,
      "ĠâĢĵ": 621,
      "one": 622,
      "ors": 623,
      "Ġout": 624,
      "ĠY": 625,
      "ose": 626,
      "Ġ3": 627,
      "ree": 628,
      "ake": 629,
      "Ġpre": 630,
      "over": 631,
      "Ġhad": 632,
      "irst": 633,
      "Ġsc": 634,
      "Ġev": 635,
      "Ġbec": 636,
      "ates": 637,
      "aus": 638,
      "erv": 639,
      "ile": 640,
      "Ġpe": 641,
      "Ġso": 642,
      "ĠHe": 643,
      "ĠAl": 644,
      "Ġyear": 645,
      "ph": 646,
      "Ġrec": 647,
      "Ġgr": 648,
      "Ġ201": 649,
      "ts": 650,
      "Ġcomm": 651,
      "ĠThis": 652,
      "ite": 653,
      "lud": 654,
      "ond": 655,
      "Ġbeen": 656,
      "ational": 657,
      "Ġabout": 658,
      "form": 659,
      "olog": 660,
      "oll": 661,
      "Ġstud": 662,
      "Ġag": 663,
      "Ġsy": 664,
      "ople": 665,
      "hed": 666,
      "ail": 667,
      "Ġup": 668,
      "ings": 669,
      "te": 670,
      "les": 671,
      "ons": 672,
      "Ġtw": 673,
      "Ġthem": 674,
      "pec": 675,
      "Ġfirst": 676,
      "lic": 677,
      "Ġro": 678,
      "ays": 679,
      "Ġinto": 680,
      "fter": 681,
      "erm": 682,
      "Ġthan": 683,
      "Ġover": 684,
      "wn": 685,
      "very": 686,
      "we": 687,
      "Ġkn": 688,
      "Ġqu": 689,
      "Ġwhen": 690,
      "Ġinclud": 691,
      "Ġtime": 692,
      "Ġdes": 693,
      "ool": 694,
      "amp": 695,
      "lect": 696,
      "rough": 697,
      "Ġact": 698,
      "Ġmay": 699,
      "čĊ": 700,
      "Ġthere": 701,
      "Ġwork": 702,
      "ark": 703,
      "ade": 704,
      "Ġind": 705,
      "ob": 706,
      "Ġsome": 707,
      "ally": 708,
      "âĢĵ": 709,
      "land": 710,
      "Ġcons": 711,
      "ced": 712,
      "19": 713,
      "Ġbet": 714,
      "Ġnew": 715,
      "ath": 716,
      "Ġpeople": 717,
      "Ġ18": 718,
      "Ġunder": 719,
      "Ġmost": 720,
      "ious": 721,
      "ne": 722,
      "meric": 723,
      "gr": 724,
      "ities": 725,
      "ific": 726,
      "ĠAs": 727,
      "uring": 728,
      "old": 729,
      "Ġwould": 730,
      "Ġtwo": 731,
      "Ġacc": 732,
      "aw": 733,
      "ĠSe": 734,
      "oin": 735,
      "Ġpr": 736,
      "ning": 737,
      "ck": 738,
      "ys": 739,
      "ivers": 740,
      "ics": 741,
      "Ġrel": 742,
      "ited": 743,
      "iss": 744,
      "Ġsuch": 745,
      "Ġ4": 746,
      "Ġdif": 747,
      "ied": 748,
      "ook": 749,
      "ased": 750,
      "Ġbl": 751,
      "Ġthese": 752,
      "ject": 753,
      "ike": 754,
      "Ġfl": 755,
      "ĠAmeric": 756,
      "Ġ199": 757,
      "ular": 758,
      "als": 759,
      "Ġprodu": 760,
      "ause": 761,
      "Ġinter": 762,
      "velop": 763,
      "Ġused": 764,
      "ĠEn": 765,
      "ĠAr": 766,
      "Ġonly": 767,
      "stem": 768,
      "Ġgen": 769,
      "Ġuse": 770,
      "rib": 771,
      "Ġhow": 772,
      "Ġreg": 773,
      "Ġass": 774,
      "ating": 775,
      "Ġno": 776,
      "oth": 777,
      "hen": 778,
      "Ġatt": 779,
      "Ġtra": 780,
      "Ġ5": 781,
      "Ġher": 782,
      "Ġthrough": 783,
      "chool": 784,
      "Ġph": 785,
      "ient": 786,
      "Ġam": 787,
      "ower": 788,
      "iet": 789,
      "Ġprov": 790,
      "Ġcol": 791,
      "Ġform": 792,
      "Ġfe": 793,
      "gan": 794,
      "Ġra": 795,
      "Ġimp": 796,
      "cess": 797,
      "ted": 798,
      "alth": 799,
      "red": 800,
      "Ġspec": 801,
      "ĠWh": 802,
      "Ġmany": 803,
      "oss": 804,
      "ative": 805,
      "Ġoff": 806,
      "Ġsa": 807,
      "ten": 808,
      "arch": 809,
      "Ġ|": 810,
      "Ġany": 811,
      "Ġafter": 812,
      "ween": 813,
      "ife": 814,
      "ĠCom": 815,
      "ffect": 816,
      "Ġdevelop": 817,
      "Ġplay": 818,
      "Ġdec": 819,
      "Ġsub": 820,
      "Ġchild": 821,
      "Ġif": 822,
      "hes": 823,
      "Ġem": 824,
      "Ġac": 825,
      "ise": 826,
      "ick": 827,
      "Ġyears": 828,
      "oy": 829,
      "Ġexp": 830,
      "uc": 831,
      "Ġour": 832,
      "ft": 833,
      "Ġrem": 834,
      "Ġbetween": 835,
      "ism": 836,
      "orn": 837,
      "ron": 838,
      "fore": 839,
      "Ġbu": 840,
      "Ġhel": 841,
      "Ġneed": 842,
      "ĠPro": 843,
      "ĠNew": 844,
      "Ġsystem": 845,
      "ĠDe": 846,
      "Ġwhere": 847,
      "ures": 848,
      "Ġcent": 849,
      "urn": 850,
      "ists": 851,
      "eth": 852,
      "ward": 853,
      "oup": 854,
      "Ġadd": 855,
      "Ġinv": 856,
      "row": 857,
      "ily": 858,
      "io": 859,
      "Ġdiffer": 860,
      "Ġear": 861,
      "ful": 862,
      "ments": 863,
      "Ġpres": 864,
      "ting": 865,
      "Ġwhat": 866,
      "Ġob": 867,
      "Ġsupp": 868,
      "ident": 869,
      "Ġwell": 870,
      "Ġsur": 871,
      "Ġtrans": 872,
      "ible": 873,
      "ility": 874,
      "ution": 875,
      "Ġhelp": 876,
      "ins": 877,
      "ement": 878,
      "ences": 879,
      "ract": 880,
      "Ġnum": 881,
      "hip": 882,
      "its": 883,
      "Ġpol": 884,
      "ink": 885,
      "Ġfound": 886,
      "Ġloc": 887,
      "cy": 888,
      "ert": 889,
      "ict": 890,
      "arg": 891,
      "ever": 892,
      "ines": 893,
      "ork": 894,
      "ran": 895,
      "Ġhigh": 896,
      "xt": 897,
      "ll": 898,
      "Ġsec": 899,
      "Ġpub": 900,
      "ollow": 901,
      "ury": 902,
      "Ġsm": 903,
      "ember": 904,
      "Ġmod": 905,
      "ug": 906,
      "ble": 907,
      "ĠCon": 908,
      "20": 909,
      "ants": 910,
      "Ġgo": 911,
      "Ġinf": 912,
      "cent": 913,
      "ĠFor": 914,
      "ural": 915,
      "Ġthen": 916,
      "Ġinst": 917,
      "Ġ6": 918,
      "any": 919,
      "ished": 920,
      "ĠAmerican": 921,
      "ĠLe": 922,
      "Ġlike": 923,
      "Ġco": 924,
      "ology": 925,
      "Ġed": 926,
      "elf": 927,
      "Ġpers": 928,
      "uch": 929,
      "ral": 930,
      "ually": 931,
      "oh": 932,
      "ock": 933,
      "inal": 934,
      "ros": 935,
      "Ġcount": 936,
      "ah": 937,
      "Ġmed": 938,
      "Ġduring": 939,
      "ature": 940,
      "Ġcould": 941,
      "iversity": 942,
      "overn": 943,
      "Ġcall": 944,
      "eral": 945,
      "ars": 946,
      "ale": 947,
      "con": 948,
      "Ġshe": 949,
      "tle": 950,
      "Ġwater": 951,
      "ĠSc": 952,
      "other": 953,
      "ange": 954,
      "ince": 955,
      "cept": 956,
      "Ġ198": 957,
      "Ġdist": 958,
      "Ġset": 959,
      "chn": 960,
      "Ġserv": 961,
      "ton": 962,
      "ĠHow": 963,
      "ience": 964,
      "ĠOn": 965,
      "Ġend": 966,
      "Ġdef": 967,
      "Ġbeing": 968,
      "ove": 969,
      "arm": 970,
      "ĠInd": 971,
      "iew": 972,
      "Ġshould": 973,
      "Ġsign": 974,
      "ision": 975,
      "iel": 976,
      "outh": 977,
      "Ġfollow": 978,
      "ĠWe": 979,
      "Ġlong": 980,
      "Ġhim": 981,
      "Ġdisc": 982,
      "Ġvar": 983,
      "vent": 984,
      "ĠEx": 985,
      "ues": 986,
      "Ġsim": 987,
      "ix": 988,
      "und": 989,
      "ey": 990,
      "Ġent": 991,
      "ives": 992,
      "ather": 993,
      "cer": 994,
      "Ġart": 995,
      "Ġagain": 996,
      "Ġcar": 997,
      "ness": 998,
      "Ġworld": 999,
      "Ġmade": 1000,
      "ically": 1001,
      "Ġimport": 1002,
      "gy": 1003,
      "Ġext": 1004,
      "Ġpop": 1005,
      "Ġbel": 1006,
      "Ġmake": 1007,
      "aking": 1008,
      "ier": 1009,
      "led": 1010,
      "Ġty": 1011,
      "ty": 1012,
      "Ġbecause": 1013,
      "Ġfam": 1014,
      "Ġest": 1015,
      "gram": 1016,
      "way": 1017,
      "ĠSh": 1018,
      "Ġresp": 1019,
      "ruct": 1020,
      "lish": 1021,
      "Ġlead": 1022,
      "Ġown": 1023,
      "Ġ7": 1024,
      "Ġmon": 1025,
      "ized": 1026,
      "Ġdifferent": 1027,
      "Ġwrit": 1028,
      "Ġschool": 1029,
      "ved": 1030,
      "ata": 1031,
      "Ġhealth": 1032,
      "aj": 1033,
      "ms": 1034,
      "ĠEng": 1035,
      "Ġresult": 1036,
      "Ġdet": 1037,
      "000": 1038,
      "ages": 1039,
      "The": 1040,
      "imes": 1041,
      "Ġget": 1042,
      "Ġrep": 1043,
      "Ġdep": 1044,
      "Ġcre": 1045,
      "Ġincre": 1046,
      "ene": 1047,
      "Ġhum": 1048,
      "Ġeven": 1049,
      "Ġvery": 1050,
      "orth": 1051,
      "man": 1052,
      "irect": 1053,
      "Ġgroup": 1054,
      "Ġaut": 1055,
      "ĠThey": 1056,
      "formation": 1057,
      "Ġjust": 1058,
      "Ġlife": 1059,
      "Ġthree": 1060,
      "ider": 1061,
      "Ġeffect": 1062,
      "Ġmin": 1063,
      "Ġpartic": 1064,
      "Ġboth": 1065,
      "ices": 1066,
      "ĠIf": 1067,
      "Ġeach": 1068,
      "raph": 1069,
      "Ġret": 1070,
      "Ġexper": 1071,
      "Ġhist": 1072,
      "Ġ197": 1073,
      "Ġser": 1074,
      "Ġrese": 1075,
      "ĠThere": 1076,
      "Ġknow": 1077,
      "iver": 1078,
      "ĠIs": 1079,
      "Ġcommun": 1080,
      "oot": 1081,
      "au": 1082,
      "Ġsame": 1083,
      "ason": 1084,
      "air": 1085,
      "Ġthose": 1086,
      "ds": 1087,
      "Ġbefore": 1088,
      "Ġ10": 1089,
      "ĠAt": 1090,
      "Ġmain": 1091,
      "..": 1092,
      "Ġway": 1093,
      "uss": 1094,
      "ĠBe": 1095,
      "ĠSp": 1096,
      "Ġback": 1097,
      "ames": 1098,
      "ĠUnited": 1099,
      "rop": 1100,
      "Ġsoc": 1101,
      "Ġshow": 1102,
      "Ġsk": 1103,
      "ax": 1104,
      "Ġwhile": 1105,
      "Ġfil": 1106,
      "Ġ8": 1107,
      "Ġcomple": 1108,
      "ĠUniversity": 1109,
      "ĠCl": 1110,
      "Ġsaid": 1111,
      "Ġbo": 1112,
      "Ġnumber": 1113,
      "Ġsee": 1114,
      "Ġdr": 1115,
      "ases": 1116,
      "ash": 1117,
      "ĠCol": 1118,
      "az": 1119,
      "Ġmus": 1120,
      "hem": 1121,
      "ody": 1122,
      "Ġlear": 1123,
      "ional": 1124,
      "Ġcur": 1125,
      "ouse": 1126,
      "Ġrequ": 1127,
      "ially": 1128,
      "Ġchildren": 1129,
      "Ġknown": 1130,
      "Ġprocess": 1131,
      "ium": 1132,
      "Ġfact": 1133,
      "ection": 1134,
      "Ġpat": 1135,
      "emb": 1136,
      "Ġright": 1137,
      "Ġevery": 1138,
      "ĠZ": 1139,
      "els": 1140,
      "ex": 1141,
      "omen": 1142,
      "cl": 1143,
      "ven": 1144,
      "Ġins": 1145,
      "arge": 1146,
      "iving": 1147,
      ".\"": 1148,
      "iron": 1149,
      "ĠOr": 1150,
      "Ġincluding": 1151,
      "Ġperson": 1152,
      "Ġsmall": 1153,
      "Ġtechn": 1154,
      "Ġmuch": 1155,
      "Ġgovern": 1156,
      "ĠAd": 1157,
      "Ġmov": 1158,
      "Ġstr": 1159,
      "ulation": 1160,
      "Ġsever": 1161,
      "the": 1162,
      "Ġ9": 1163,
      "lished": 1164,
      "ands": 1165,
      "Ġdesign": 1166,
      "Ġread": 1167,
      "ample": 1168,
      "Ġimportant": 1169,
      "Ġprogram": 1170,
      "gg": 1171,
      "Ġsl": 1172,
      "Ġlevel": 1173,
      "ute": 1174,
      "ived": 1175,
      "Ġelect": 1176,
      "ality": 1177,
      "ĠCan": 1178,
      "ross": 1179,
      "ĠPh": 1180,
      "Ġop": 1181,
      "Ġorgan": 1182,
      "com": 1183,
      "Ġocc": 1184,
      "rol": 1185,
      "ize": 1186,
      "ets": 1187,
      "Ġav": 1188,
      "Ġsupport": 1189,
      "Ġ196": 1190,
      "ital": 1191,
      "ave": 1192,
      "ared": 1193,
      "oint": 1194,
      "ner": 1195,
      "ivid": 1196,
      "ĠAnd": 1197,
      "Ġconst": 1198,
      "Ġstudents": 1199,
      "Ġcontin": 1200,
      "ired": 1201,
      ".,": 1202,
      "ball": 1203,
      "Ġcalled": 1204,
      "Ġoften": 1205,
      "Ġinformation": 1206,
      "ull": 1207,
      "rain": 1208,
      "ians": 1209,
      "Ġnow": 1210,
      "ains": 1211,
      "Ġprot": 1212,
      "Ġstart": 1213,
      "Ġexpl": 1214,
      "Ġpower": 1215,
      "Ġmy": 1216,
      "ank": 1217,
      "pr": 1218,
      "Ġbr": 1219,
      "Ġclass": 1220,
      "ides": 1221,
      "Ġdoes": 1222,
      "Ġgu": 1223,
      "ĠPl": 1224,
      "iety": 1225,
      "Ġlit": 1226,
      "eng": 1227,
      "Ġusing": 1228,
      "oci": 1229,
      "Ġdown": 1230,
      "Ġsol": 1231,
      "Ġcare": 1232,
      "inc": 1233,
      "ĠWor": 1234,
      "Ġgl": 1235,
      "Ġbuild": 1236,
      "read": 1237,
      "uro": 1238,
      "Ġsecond": 1239,
      "Ġfind": 1240,
      "Ġposs": 1241,
      "Ġstudy": 1242,
      "Ġval": 1243,
      "ĠQ": 1244,
      "Ġaround": 1245,
      "Ġdid": 1246,
      "Ġdirect": 1247,
      "osed": 1248,
      "rist": 1249,
      "Ġstate": 1250,
      "Ġfood": 1251,
      "akes": 1252,
      "Ġday": 1253,
      "get": 1254,
      "ĠBut": 1255,
      "Ġpublic": 1256,
      "iqu": 1257,
      "ĠStates": 1258,
      "Ġactiv": 1259,
      "Ġgood": 1260,
      "ield": 1261,
      "rent": 1262,
      "Ġproble": 1263,
      ".âĢĿ": 1264,
      "ina": 1265,
      "Ġ17": 1266,
      "ĠComm": 1267,
      "viron": 1268,
      "18": 1269,
      "ving": 1270,
      "Ġmet": 1271,
      "ĠBrit": 1272,
      "ior": 1273,
      "Ġlater": 1274,
      "ined": 1275,
      "itions": 1276,
      "Ġdata": 1277,
      "ĠBl": 1278,
      "Ġ15": 1279,
      "ves": 1280,
      "acter": 1281,
      "day": 1282,
      "ajor": 1283,
      "Ġarea": 1284,
      "ĠJoh": 1285,
      "ograph": 1286,
      "Ġfun": 1287,
      "Ġcommon": 1288,
      "ann": 1289,
      "ern": 1290,
      "Ġmat": 1291,
      "10": 1292,
      "ained": 1293,
      "Ġtest": 1294,
      "Ġorig": 1295,
      "apt": 1296,
      "Ġconsider": 1297,
      "Ġoper": 1298,
      "Ġagainst": 1299,
      "Ġless": 1300,
      "Ġadv": 1301,
      "Ġ&": 1302,
      "til": 1303,
      "Ġtake": 1304,
      "Ġref": 1305,
      "angu": 1306,
      "Ġgrow": 1307,
      "Ġair": 1308,
      "Ġchar": 1309,
      "ĠWhen": 1310,
      "Ġreport": 1311,
      "ĠThese": 1312,
      "conom": 1313,
      "Ġbro": 1314,
      "Ġsom": 1315,
      "gen": 1316,
      "to": 1317,
      "urch": 1318,
      "ording": 1319,
      "ĠHowever": 1320,
      "Ġrele": 1321,
      "Ġsing": 1322,
      "Ġtreat": 1323,
      "Ġallow": 1324,
      "stand": 1325,
      "ĠNational": 1326,
      "ergy": 1327,
      "iod": 1328,
      "reen": 1329,
      "Ġplace": 1330,
      "ĠTe": 1331,
      "Ġcor": 1332,
      "âĢĶ": 1333,
      "Ġcour": 1334,
      "Ġgener": 1335,
      "||": 1336,
      "Ġthough": 1337,
      "Ġteam": 1338,
      "Ġfour": 1339,
      "ately": 1340,
      "Ġterm": 1341,
      "ferences": 1342,
      "Ġhuman": 1343,
      "hers": 1344,
      "iam": 1345,
      "illion": 1346,
      "iven": 1347,
      "Ġgreat": 1348,
      "Ġearly": 1349,
      "Ġequ": 1350,
      "ccess": 1351,
      "Ġconf": 1352,
      "Ġfin": 1353,
      "ĠGr": 1354,
      "Ġpass": 1355,
      "Ġcell": 1356,
      "vironment": 1357,
      "ĠJohn": 1358,
      "Ġbody": 1359,
      "Ġstill": 1360,
      "Ġcond": 1361,
      "Ġele": 1362,
      "bs": 1363,
      "ĠWorld": 1364,
      "ĠYou": 1365,
      "Ġresearch": 1366,
      "ĠGerm": 1367,
      "anc": 1368,
      "Ġeduc": 1369,
      "Ġdesc": 1370,
      "Ġexample": 1371,
      "ats": 1372,
      "Ġappro": 1373,
      "ĠAll": 1374,
      "ission": 1375,
      "ffic": 1376,
      "Ġlarge": 1377,
      "ret": 1378,
      "Ġ.": 1379,
      "une": 1380,
      "ke": 1381,
      "ĠTr": 1382,
      "ization": 1383,
      "ley": 1384,
      "Ġmust": 1385,
      "Ġname": 1386,
      "ternal": 1387,
      "ected": 1388,
      "line": 1389,
      "Ġpar": 1390,
      "Ġ16": 1391,
      "Ġris": 1392,
      "Ġbas": 1393,
      "ĠRes": 1394,
      "Ġseveral": 1395,
      "ternational": 1396,
      "atic": 1397,
      "ĠAust": 1398,
      "Ġprof": 1399,
      "Ġgovernment": 1400,
      "Ġestab": 1401,
      "Ġbecame": 1402,
      "Ġcap": 1403,
      "ĠTo": 1404,
      "hor": 1405,
      "Ġpos": 1406,
      "\".": 1407,
      "Ġvis": 1408,
      "Ġpresent": 1409,
      "Ġwithin": 1410,
      "Ġ194": 1411,
      "ries": 1412,
      "Ġlaw": 1413,
      "Ġdise": 1414,
      "ĠWar": 1415,
      "ively": 1416,
      "Ġredu": 1417,
      "Ġopen": 1418,
      "Ġdem": 1419,
      "Âł": 1420,
      "Ġeng": 1421,
      "Ġuntil": 1422,
      "Ġcle": 1423,
      "ger": 1424,
      "ified": 1425,
      "Ġperform": 1426,
      "ĠCent": 1427,
      "min": 1428,
      "iness": 1429,
      "Ġnear": 1430,
      "ple": 1431,
      "ised": 1432,
      "ĠMar": 1433,
      "Ġke": 1434,
      "ĠEuro": 1435,
      "Ġ12": 1436,
      "Ġorder": 1437,
      "ator": 1438,
      "Ġmajor": 1439,
      "Ġinclude": 1440,
      "ination": 1441,
      "Ġbeh": 1442,
      "aren": 1443,
      "Ġrest": 1444,
      "Ġsince": 1445,
      "ĠChrist": 1446,
      "alk": 1447,
      "ĠNo": 1448,
      "rodu": 1449,
      "Ġplan": 1450,
      "Ġiss": 1451,
      "Ġfew": 1452,
      "Ġrecord": 1453,
      "Ġpract": 1454,
      "ym": 1455,
      "gin": 1456,
      "Ġrev": 1457,
      "ober": 1458,
      "200": 1459,
      "Ġpolit": 1460,
      "Ġleg": 1461,
      "Ġhome": 1462,
      "Ġchang": 1463,
      "Ġfamily": 1464,
      "Ġbir": 1465,
      "Ġpo": 1466,
      "ense": 1467,
      "Ġrun": 1468,
      "Ġlook": 1469,
      "ards": 1470,
      "ĠAm": 1471,
      "Ġmil": 1472,
      "Ġ195": 1473,
      "ividual": 1474,
      "ĠPr": 1475,
      "ration": 1476,
      "oms": 1477,
      "enn": 1478,
      "Ġwar": 1479,
      "Ġanother": 1480,
      "Ã©": 1481,
      "Ġcult": 1482,
      "aterial": 1483,
      "Ġmark": 1484,
      "ĠCar": 1485,
      "ĠAf": 1486,
      "ec": 1487,
      "tt": 1488,
      "ĠEurope": 1489,
      "Ġspe": 1490,
      "ption": 1491,
      "Ġold": 1492,
      "Ġtyp": 1493,
      "ids": 1494,
      "Ġtem": 1495,
      "ths": 1496,
      "Ġwomen": 1497,
      "ek": 1498,
      "Ġstand": 1499,
      "ĠWhat": 1500,
      "ources": 1501,
      "Ġlast": 1502,
      "ential": 1503,
      "yn": 1504,
      "inks": 1505,
      "Ġfollowing": 1506,
      "ental": 1507,
      "Ġwithout": 1508,
      "eb": 1509,
      "resent": 1510,
      "Ġant": 1511,
      "med": 1512,
      "Ġbased": 1513,
      "ĠAfter": 1514,
      "Ġland": 1515,
      "Ġide": 1516,
      "ended": 1517,
      "Ġeas": 1518,
      "ently": 1519,
      "Ġproject": 1520,
      "Ġhead": 1521,
      "Ġdevelopment": 1522,
      "Ġdeath": 1523,
      "Ġsit": 1524,
      "Ġcaus": 1525,
      "Ġrece": 1526,
      "ĠReferences": 1527,
      "Ġopp": 1528,
      "mp": 1529,
      "Ġident": 1530,
      "ĠEnglish": 1531,
      "Ġhistory": 1532,
      "ological": 1533,
      "though": 1534,
      "ĠShe": 1535,
      "ĠMus": 1536,
      "by": 1537,
      "ertain": 1538,
      "por": 1539,
      "Ġbre": 1540,
      "ris": 1541,
      "oman": 1542,
      "ethod": 1543,
      "ĠGe": 1544,
      "Ġbus": 1545,
      "Ġcentury": 1546,
      "Ġbelie": 1547,
      "Ġmar": 1548,
      "Ġproduct": 1549,
      "Ġ'": 1550,
      "ĠSouth": 1551,
      "Ġbest": 1552,
      "Ġindividual": 1553,
      "Ġphys": 1554,
      "isc": 1555,
      "ĠĠĠĠ": 1556,
      "itive": 1557,
      "Ġlangu": 1558,
      "ling": 1559,
      "ided": 1560,
      "less": 1561,
      "Ġtop": 1562,
      "ĠMay": 1563,
      "rict": 1564,
      "Ġperiod": 1565,
      "ĠBritish": 1566,
      "Ġbecome": 1567,
      "Ġlarg": 1568,
      "urs": 1569,
      "Ġmen": 1570,
      "Ġhand": 1571,
      "par": 1572,
      "Ġsuccess": 1573,
      "Ġmanag": 1574,
      "Ġquest": 1575,
      "Ġmaterial": 1576,
      "lu": 1577,
      "yl": 1578,
      "Ġeconom": 1579,
      "ĠHist": 1580,
      "Ġes": 1581,
      "Ġaddition": 1582,
      "ĠUS": 1583,
      "agn": 1584,
      "Ġsocial": 1585,
      "Ġlight": 1586,
      "eter": 1587,
      "Ġcontrol": 1588,
      "ĠAss": 1589,
      "irc": 1590,
      "Ġlocal": 1591,
      "Ġnon": 1592,
      "ability": 1593,
      "Ġdi": 1594,
      "ps": 1595,
      "Ġalong": 1596,
      "Ġunderstand": 1597,
      "Ġchange": 1598,
      "ried": 1599,
      "Ġcountry": 1600,
      "ĠMed": 1601,
      "'t": 1602,
      "ole": 1603,
      "embers": 1604,
      "Ġamong": 1605,
      "ott": 1606,
      "ae": 1607,
      "\",": 1608,
      "ĠNorth": 1609,
      "Ġfre": 1610,
      "Ġinterest": 1611,
      "Ġlist": 1612,
      "Ġenvironment": 1613,
      "ĠOne": 1614,
      "rem": 1615,
      "Ġimpro": 1616,
      "Ġfore": 1617,
      "ories": 1618,
      "ĠSchool": 1619,
      "Ġmight": 1620,
      "Ġpain": 1621,
      "urther": 1622,
      "stit": 1623,
      "Ġwant": 1624,
      "Ġenergy": 1625,
      "Ġfac": 1626,
      "ention": 1627,
      "ilar": 1628,
      "Ġtrad": 1629,
      "Ġstat": 1630,
      "Ġthink": 1631,
      "Ġpot": 1632,
      "12": 1633,
      "Ġcurrent": 1634,
      "Ġproper": 1635,
      "imate": 1636,
      "atural": 1637,
      "ister": 1638,
      "ills": 1639,
      "Ġappear": 1640,
      "Ġinvol": 1641,
      "ĠCanad": 1642,
      "ify": 1643,
      "Ġsym": 1644,
      "ai": 1645,
      "ways": 1646,
      "Ġhy": 1647,
      ",âĢĿ": 1648,
      "aster": 1649,
      "ĠEar": 1650,
      "tal": 1651,
      "Ġanim": 1652,
      "ency": 1653,
      "ring": 1654,
      "ĠYork": 1655,
      "Ġspecies": 1656,
      "Ġcity": 1657,
      "ote": 1658,
      "ĠâĢĺ": 1659,
      "icle": 1660,
      "ĠCal": 1661,
      "Ġreal": 1662,
      "Ġ[": 1663,
      "Ġanal": 1664,
      "ane": 1665,
      "ox": 1666,
      "Ġoffic": 1667,
      "ued": 1668,
      "Ġet": 1669,
      "Ġparticular": 1670,
      "Ġhig": 1671,
      "Ġlow": 1672,
      "ilt": 1673,
      "ining": 1674,
      "Ġdue": 1675,
      "ourn": 1676,
      "Ġdon": 1677,
      "ode": 1678,
      "ogn": 1679,
      "Ġlearn": 1680,
      "amed": 1681,
      "Ġ14": 1682,
      "ĠAb": 1683,
      "ĠCount": 1684,
      "ales": 1685,
      "ĠBy": 1686,
      "osp": 1687,
      "Ġareas": 1688,
      "Ġmeas": 1689,
      "Ġ193": 1690,
      "Ġfoot": 1691,
      "ĠAustral": 1692,
      "ones": 1693,
      "Ġshort": 1694,
      "Ġmethod": 1695,
      "Ġavail": 1696,
      "vers": 1697,
      "Ġann": 1698,
      "ĠâĢĶ": 1699,
      "oad": 1700,
      "ird": 1701,
      "ends": 1702,
      "Ġlinks": 1703,
      "ĠAfric": 1704,
      "Ġel": 1705,
      "Ġseries": 1706,
      "ware": 1707,
      "Ġ13": 1708,
      "Ġlim": 1709,
      "fic": 1710,
      "idd": 1711,
      "oks": 1712,
      "Ġprom": 1713,
      "Ġdev": 1714,
      "idence": 1715,
      "Ġve": 1716,
      "pect": 1717,
      "ublic": 1718,
      "ource": 1719,
      "Ġbook": 1720,
      "here": 1721,
      "my": 1722,
      "Ġpost": 1723,
      "ances": 1724,
      "Ġpopulation": 1725,
      "let": 1726,
      "wards": 1727,
      "15": 1728,
      "ploy": 1729,
      "ĠSo": 1730,
      "Ġwin": 1731,
      "Ġdel": 1732,
      "ĠWith": 1733,
      "oph": 1734,
      "ĠPe": 1735,
      "Ġtimes": 1736,
      "oung": 1737,
      "be": 1738,
      "ĠReg": 1739,
      "Ġstruct": 1740,
      "Ġfilm": 1741,
      "ored": 1742,
      "ĠMan": 1743,
      "Ġdisease": 1744,
      "Ġ$": 1745,
      "ĠBr": 1746,
      "Ġmusic": 1747,
      "17": 1748,
      "ĠNe": 1749,
      "Ġrad": 1750,
      "Ġ2006": 1751,
      "de": 1752,
      "rap": 1753,
      "Ġpoint": 1754,
      "Ġmean": 1755,
      "Ġrefer": 1756,
      "Ġdescrib": 1757,
      "Ġseason": 1758,
      "ung": 1759,
      "abor": 1760,
      "ĠPol": 1761,
      "olution": 1762,
      "cing": 1763,
      "Ġsignific": 1764,
      "vious": 1765,
      "aim": 1766,
      "ots": 1767,
      "Ġothers": 1768,
      "Ġprovide": 1769,
      "ably": 1770,
      "ague": 1771,
      "ster": 1772,
      "arc": 1773,
      "Ġconn": 1774,
      "Ġpossible": 1775,
      "Ġmeans": 1776,
      "ĠGod": 1777,
      "Ġblood": 1778,
      "ument": 1779,
      "Ġ0": 1780,
      "lege": 1781,
      "ĠGu": 1782,
      "Ġassoci": 1783,
      "Ġcharacter": 1784,
      "ipp": 1785,
      "Ġleft": 1786,
      "Ġvol": 1787,
      "af": 1788,
      "ope": 1789,
      "Ġwon": 1790,
      "Ġage": 1791,
      "Ġlik": 1792,
      "Ġgiven": 1793,
      "Ġauthor": 1794,
      "Ġrisk": 1795,
      "ured": 1796,
      "ead": 1797,
      "ĠSome": 1798,
      "app": 1799,
      "Ġtoo": 1800,
      "Ġview": 1801,
      "ĠJan": 1802,
      "Ġbetter": 1803,
      "Ġline": 1804,
      "ĠPar": 1805,
      "ĠRep": 1806,
      "Ġbene": 1807,
      "Ġcase": 1808,
      "int": 1809,
      "ering": 1810,
      "13": 1811,
      "Ġvers": 1812,
      "Ġche": 1813,
      "Ġmembers": 1814,
      "Ġsay": 1815,
      "br": 1816,
      "Ġable": 1817,
      "Ġkeep": 1818,
      "Ġer": 1819,
      "ival": 1820,
      "bum": 1821,
      "Ġreturn": 1822,
      "ruction": 1823,
      "Ġbi": 1824,
      "ze": 1825,
      "Ġmult": 1826,
      "Ġturn": 1827,
      "ĠKing": 1828,
      "Ġavailable": 1829,
      "ĠII": 1830,
      "aper": 1831,
      "work": 1832,
      "16": 1833,
      "ĠFl": 1834,
      "ram": 1835,
      "ĠEd": 1836,
      "Ġpercent": 1837,
      "Ġnational": 1838,
      "Ġcrit": 1839,
      "Ġcal": 1840,
      "ĠMon": 1841,
      "Ġsw": 1842,
      "Ġhere": 1843,
      "Ġcomb": 1844,
      "ribut": 1845,
      "ĠGen": 1846,
      "Ġindust": 1847,
      "Ġmillion": 1848,
      "ee": 1849,
      "Ġsingle": 1850,
      "ients": 1851,
      "ged": 1852,
      "Ġdra": 1853,
      "Ġcost": 1854,
      "ither": 1855,
      ",\"": 1856,
      "ours": 1857,
      "ĠAug": 1858,
      "Ġaccess": 1859,
      "augh": 1860,
      "aken": 1861,
      "ĠHis": 1862,
      "ĠComp": 1863,
      "Ġcause": 1864,
      "ĠJu": 1865,
      "Ġscient": 1866,
      "duct": 1867,
      "son": 1868,
      "uary": 1869,
      "Ġobject": 1870,
      "alf": 1871,
      "amm": 1872,
      "Ġsimilar": 1873,
      "Ġbegan": 1874,
      "ape": 1875,
      "Ġprofess": 1876,
      "ĠAct": 1877,
      "oid": 1878,
      "Ġcr": 1879,
      "ĠMin": 1880,
      "ocus": 1881,
      "apan": 1882,
      "aces": 1883,
      "of": 1884,
      "mit": 1885,
      "Ġprop": 1886,
      "ĠSoc": 1887,
      "Ġplant": 1888,
      "Ġvarious": 1889,
      "sh": 1890,
      "Ġcertain": 1891,
      "aining": 1892,
      "Ġmaking": 1893,
      "14": 1894,
      "Ġlanguage": 1895,
      "Ġpress": 1896,
      "Ġ30": 1897,
      "Ġrepresent": 1898,
      "Ġcommunity": 1899,
      "Ġsaf": 1900,
      "ches": 1901,
      "side": 1902,
      "ĠState": 1903,
      "Ġcomput": 1904,
      "ĠSu": 1905,
      "sel": 1906,
      "ĠExternal": 1907,
      "orts": 1908,
      "ending": 1909,
      "Ġhapp": 1910,
      "ggest": 1911,
      "Ġsuggest": 1912,
      "Ġtype": 1913,
      "Ġbusiness": 1914,
      "Ġput": 1915,
      "ĠNov": 1916,
      "Ġcirc": 1917,
      "Ġspecial": 1918,
      "Ġaffect": 1919,
      "Ġla": 1920,
      "Ġobs": 1921,
      "ators": 1922,
      "Ġbat": 1923,
      "ney": 1924,
      "Ġsignificant": 1925,
      "ression": 1926,
      "ison": 1927,
      "Ġcover": 1928,
      "Ġfree": 1929,
      "self": 1930,
      "Ġhowever": 1931,
      "ĠWill": 1932,
      "Ġevent": 1933,
      "itary": 1934,
      "Ġnext": 1935,
      "Ġgeneral": 1936,
      "for": 1937,
      "Ġdays": 1938,
      "rench": 1939,
      "ĠMarch": 1940,
      "rown": 1941,
      "Ġinvest": 1942,
      "Ġeducation": 1943,
      "Ġfive": 1944,
      "iber": 1945,
      "Ġside": 1946,
      "Ġcreat": 1947,
      "ĠAugust": 1948,
      "ered": 1949,
      "Ġgame": 1950,
      "ĠCo": 1951,
      "atory": 1952,
      "Ġexist": 1953,
      "aced": 1954,
      "ese": 1955,
      "Ġnatural": 1956,
      "Ġhard": 1957,
      "lev": 1958,
      "ĠDr": 1959,
      "Ġthings": 1960,
      "Ġprevent": 1961,
      "ĠJapan": 1962,
      "Ġhaving": 1963,
      "Ġworks": 1964,
      "ows": 1965,
      "most": 1966,
      "Ġlearning": 1967,
      "Ġpublished": 1968,
      "Ġtreatment": 1969,
      "ĠOct": 1970,
      "ĠFran": 1971,
      "Ġexam": 1972,
      "Ġcome": 1973,
      "estern": 1974,
      "iation": 1975,
      "Ġusually": 1976,
      "ask": 1977,
      "Ġformer": 1978,
      "ges": 1979,
      "199": 1980,
      "Ġfeel": 1981,
      "Ġrepl": 1982,
      "Ġlittle": 1983,
      "ĠX": 1984,
      "Ġrole": 1985,
      "ww": 1986,
      "erc": 1987,
      "face": 1988,
      "Ġfunction": 1989,
      "Ġprim": 1990,
      "ĠBar": 1991,
      "sy": 1992,
      "Ġtook": 1993,
      "omm": 1994,
      "cle": 1995,
      "rew": 1996,
      "50": 1997,
      "Ġsays": 1998,
      "ĠAcc": 1999,
      "ulations": 2000,
      "Ġarr": 2001,
      "acy": 2002,
      "Ġfocus": 2003,
      "Ġbuilding": 2004,
      "Ġalbum": 2005,
      "Ġsystems": 2006,
      "ĠSec": 2007,
      "aps": 2008,
      "Ġhouse": 2009,
      "uture": 2010,
      "ĠMe": 2011,
      "aut": 2012,
      "dom": 2013,
      "lection": 2014,
      "ĠBo": 2015,
      "umb": 2016,
      "ĠPart": 2017,
      "ounds": 2018,
      "Ġ11": 2019,
      "ĠHar": 2020,
      "ler": 2021,
      "ĠCity": 2022,
      "rie": 2023,
      "pecially": 2024,
      "Ġdeterm": 2025,
      "ĠSept": 2026,
      "Ġnever": 2027,
      "Ġspace": 2028,
      "ony": 2029,
      "Ġbegin": 2030,
      "ivil": 2031,
      "ĠGerman": 2032,
      "ems": 2033,
      "Ġinflu": 2034,
      "istic": 2035,
      "ĠWhile": 2036,
      "Ġcho": 2037,
      "Ġenc": 2038,
      "ĠWest": 2039,
      "Ġtri": 2040,
      "Ġstrong": 2041,
      "epend": 2042,
      "ush": 2043,
      "Ġamount": 2044,
      "pril": 2045,
      "Ġnet": 2046,
      "Ġproblems": 2047,
      "Ġproblem": 2048,
      "ĠJune": 2049,
      "idge": 2050,
      "ĠStud": 2051,
      "Ġacross": 2052,
      "22": 2053,
      "Ġabove": 2054,
      "Ġtown": 2055,
      "Ġvir": 2056,
      "Ġsong": 2057,
      "Ġsite": 2058,
      "asing": 2059,
      "cem": 2060,
      "bo": 2061,
      "ography": 2062,
      "Ġmot": 2063,
      "Ġsum": 2064,
      "Ġlevels": 2065,
      "ateg": 2066,
      "Ġpast": 2067,
      "Ġfull": 2068,
      "Ġcells": 2069,
      "ĠHistory": 2070,
      "ery": 2071,
      "ique": 2072,
      "adem": 2073,
      "ilities": 2074,
      "ification": 2075,
      "Ġyoung": 2076,
      "Ġbuilt": 2077,
      "etic": 2078,
      "Ġ2005": 2079,
      "Ġproduction": 2080,
      "11": 2081,
      "yle": 2082,
      "ĠSee": 2083,
      "ĠFrench": 2084,
      "Ġrelations": 2085,
      "Ġclear": 2086,
      "Ġess": 2087,
      "Ġresults": 2088,
      "ficult": 2089,
      "Ġgroups": 2090,
      "Ġimm": 2091,
      "itor": 2092,
      "gether": 2093,
      "Ġcountries": 2094,
      "aching": 2095,
      "Ġtogether": 2096,
      "atch": 2097,
      "not": 2098,
      "oney": 2099,
      "Ġfar": 2100,
      "Ġoffer": 2101,
      "Ġhistor": 2102,
      "atures": 2103,
      "ĠJanuary": 2104,
      "ething": 2105,
      "Ġcamp": 2106,
      "ĠCounty": 2107,
      "Ġill": 2108,
      "Ġestablished": 2109,
      "aves": 2110,
      "ortun": 2111,
      "iol": 2112,
      "Ġcame": 2113,
      "Ġarch": 2114,
      "ledge": 2115,
      "ĠJuly": 2116,
      "Ġleast": 2117,
      "Ġinit": 2118,
      "Ġ2000": 2119,
      "Ġcompany": 2120,
      "Ġtradition": 2121,
      "Ġep": 2122,
      "ication": 2123,
      "Ġfurther": 2124,
      "alt": 2125,
      "lement": 2126,
      "Ġpur": 2127,
      "Ġheart": 2128,
      "Ġintrodu": 2129,
      "Ġoccur": 2130,
      "Ġcompet": 2131,
      "cil": 2132,
      "Ġcourse": 2133,
      "ĠSeptember": 2134,
      "Ġlikely": 2135,
      "Ġz": 2136,
      "ades": 2137,
      "rug": 2138,
      "ille": 2139,
      "Ġdifficult": 2140,
      "Ġstory": 2141,
      "Ġalways": 2142,
      "lands": 2143,
      "Ġrespons": 2144,
      "cember": 2145,
      "Ġconsidered": 2146,
      "iting": 2147,
      "ĠAmerica": 2148,
      "Ġaway": 2149,
      "ream": 2150,
      "Ġworking": 2151,
      "reg": 2152,
      "uation": 2153,
      "omes": 2154,
      "Ġdam": 2155,
      "ples": 2156,
      "ĠApril": 2157,
      "Ġdeveloped": 2158,
      "ĠOctober": 2159,
      "sc": 2160,
      "nd": 2161,
      "ĠGeor": 2162,
      "Ġimpact": 2163,
      "ĠDes": 2164,
      "chie": 2165,
      "ĠDep": 2166,
      "Ġpolitical": 2167,
      "Ġbehav": 2168,
      "Ġincrease": 2169,
      "ights": 2170,
      "ĠThat": 2171,
      "ules": 2172,
      "Ġsix": 2173,
      "ĠEl": 2174,
      "Ġ,": 2175,
      "Ġfield": 2176,
      "Ġcreated": 2177,
      "Ġkey": 2178,
      "Ġtre": 2179,
      "eds": 2180,
      "oon": 2181,
      "Ġtoday": 2182,
      "Ġhigher": 2183,
      "Ġwords": 2184,
      "Ġparen": 2185,
      "Ġfund": 2186,
      "Ġport": 2187,
      "Ġsent": 2188,
      "ĠChar": 2189,
      "Ġservice": 2190,
      "Ġteac": 2191,
      "ournal": 2192,
      "Ġplayers": 2193,
      "illed": 2194,
      "now": 2195,
      "21": 2196,
      "Ġespecially": 2197,
      "ana": 2198,
      "Ġgive": 2199,
      "ius": 2200,
      "Ġoriginal": 2201,
      "artment": 2202,
      "aff": 2203,
      "ĠRuss": 2204,
      "Ġtemper": 2205,
      "ĠFr": 2206,
      "sw": 2207,
      "ĠDav": 2208,
      "ĠSy": 2209,
      "lex": 2210,
      "acks": 2211,
      "ĠNot": 2212,
      "Ġbenef": 2213,
      "__": 2214,
      "Ġapplic": 2215,
      "view": 2216,
      "val": 2217,
      "Ġfuture": 2218,
      "ising": 2219,
      "Ġreleased": 2220,
      "Ġpopular": 2221,
      "Ġengine": 2222,
      "Ġask": 2223,
      "Ġcreate": 2224,
      "ĠMc": 2225,
      "Ġparticip": 2226,
      "sequ": 2227,
      "obal": 2228,
      "Ġdeb": 2229,
      "Ġspecific": 2230,
      "Ġtru": 2231,
      "Ġ2010": 2232,
      "Ġdom": 2233,
      "Ġchanges": 2234,
      "Ġheld": 2235,
      "Ġlower": 2236,
      "Ġtechnology": 2237,
      "Ġled": 2238,
      "ham": 2239,
      "Ġsomething": 2240,
      "Ġconditions": 2241,
      "Ġ||": 2242,
      "...": 2243,
      "ĠCont": 2244,
      "Ġclaim": 2245,
      "Ġdiscuss": 2246,
      "ibr": 2247,
      "Ġter": 2248,
      "empt": 2249,
      "ĠHigh": 2250,
      "Ġsubject": 2251,
      "Ġ25": 2252,
      "hern": 2253,
      "Ġconsum": 2254,
      "Ġrelig": 2255,
      "ĠDuring": 2256,
      "Ġdest": 2257,
      "Ġconcer": 2258,
      "Ġseen": 2259,
      "selves": 2260,
      "ĠDecember": 2261,
      "Ġaccount": 2262,
      "Ġren": 2263,
      "urb": 2264,
      "ĠSw": 2265,
      "Ġchem": 2266,
      "Ġrecogn": 2267,
      "NA": 2268,
      "ops": 2269,
      "Ġemploy": 2270,
      "Ġnecess": 2271,
      "Ġregion": 2272,
      "ĠFeb": 2273,
      "ements": 2274,
      "ĠNovember": 2275,
      "Ġmodel": 2276,
      "Ġey": 2277,
      "ideo": 2278,
      "ule": 2279,
      "Ġmodern": 2280,
      "ront": 2281,
      "ĠGl": 2282,
      "Ġexperience": 2283,
      "str": 2284,
      "ĠPer": 2285,
      "Ġtit": 2286,
      "ĠArt": 2287,
      "Ġdiscover": 2288,
      "ysis": 2289,
      "ĠPres": 2290,
      "Ġincluded": 2291,
      "Ġorigin": 2292,
      "erson": 2293,
      "ington": 2294,
      "rel": 2295,
      "Ġlive": 2296,
      "ĠHealth": 2297,
      "uel": 2298,
      "Ġeither": 2299,
      "ĠOther": 2300,
      "Ġpolic": 2301,
      "etimes": 2302,
      "fact": 2303,
      "ched": 2304,
      "ĠInternational": 2305,
      "ites": 2306,
      "roll": 2307,
      "Ġfootball": 2308,
      "Ġprevious": 2309,
      "ips": 2310,
      "Ġfri": 2311,
      "ires": 2312,
      "ruary": 2313,
      "Ġrange": 2314,
      "Ġphot": 2315,
      "uck": 2316,
      "urity": 2317,
      "Ġstation": 2318,
      "icro": 2319,
      "att": 2320,
      "orthern": 2321,
      "Ġexc": 2322,
      "Ġrather": 2323,
      "Ġ2007": 2324,
      "Ġhalf": 2325,
      "Ġonce": 2326,
      "Ġcollect": 2327,
      "Ġcases": 2328,
      "Ġtry": 2329,
      "Ġnamed": 2330,
      "Ġrequire": 2331,
      "Ġpri": 2332,
      "23": 2333,
      "uk": 2334,
      "):": 2335,
      "incip": 2336,
      "Ġcy": 2337,
      "ĠAc": 2338,
      "Ġlet": 2339,
      "ama": 2340,
      "Ġbrain": 2341,
      "Ġhold": 2342,
      "Ġred": 2343,
      "Ġpoin": 2344,
      "Ġtaken": 2345,
      "bon": 2346,
      "Ġplayed": 2347,
      "ĠHer": 2348,
      "put": 2349,
      "Ġself": 2350,
      "Ġfall": 2351,
      "Ġindic": 2352,
      "Ġscience": 2353,
      "Ġlate": 2354,
      "lin": 2355,
      "Ġfail": 2356,
      "Ġenough": 2357,
      "iddle": 2358,
      "ĠCor": 2359,
      "Ġnorth": 2360,
      "ford": 2361,
      "Ġeff": 2362,
      "Ġmeet": 2363,
      "Ġneeds": 2364,
      "Ġcancer": 2365,
      "ĠDo": 2366,
      "ino": 2367,
      "olic": 2368,
      "Ġstudies": 2369,
      "ĠQu": 2370,
      "Ġ2004": 2371,
      "iction": 2372,
      "bor": 2373,
      "sych": 2374,
      "co": 2375,
      "Ġlocated": 2376,
      "ien": 2377,
      "Ġmass": 2378,
      "Ġnorm": 2379,
      "ready": 2380,
      "Ġservices": 2381,
      "sp": 2382,
      "cial": 2383,
      "Ġword": 2384,
      "urg": 2385,
      "raft": 2386,
      "Ġjoin": 2387,
      "Ġinternational": 2388,
      "ĠJew": 2389,
      "Ġgames": 2390,
      "ibility": 2391,
      "ĠPhil": 2392,
      "ĠWilliam": 2393,
      "Ġloss": 2394,
      "thing": 2395,
      "Ġupon": 2396,
      "Ġneg": 2397,
      "iforn": 2398,
      "born": 2399,
      "ĠIndian": 2400,
      "hib": 2401,
      "ened": 2402,
      "Ġplants": 2403,
      "Ġwhy": 2404,
      "Ġthird": 2405,
      "che": 2406,
      "Ġ2008": 2407,
      "Ġstates": 2408,
      "Ġ2011": 2409,
      "Ġtext": 2410,
      "Ġweek": 2411,
      "ĠFebruary": 2412,
      "Ġeffects": 2413,
      "Ġdoc": 2414,
      "ma": 2415,
      "Ġtypes": 2416,
      "ensive": 2417,
      "ondon": 2418,
      "aul": 2419,
      "ols": 2420,
      "ief": 2421,
      "Ġtotal": 2422,
      "Ġ21": 2423,
      "Ġmarket": 2424,
      "Ġsuper": 2425,
      "Ġreason": 2426,
      "Ġproduced": 2427,
      "Ġposition": 2428,
      "Ġpriv": 2429,
      "Ġblack": 2430,
      "Ġobserv": 2431,
      "Ġfrequ": 2432,
      "levision": 2433,
      "amb": 2434,
      "eal": 2435,
      "Ġwritten": 2436,
      "Ġmakes": 2437,
      "Ġ2009": 2438,
      "ptoms": 2439,
      "Ġkind": 2440,
      "Ġ100": 2441,
      "Ġwhether": 2442,
      "Ġachie": 2443,
      "Ġ24": 2444,
      "Ġarg": 2445,
      "Ġ2012": 2446,
      "Ġbig": 2447,
      "Ġens": 2448,
      "ĠAg": 2449,
      "ump": 2450,
      "ĠCollege": 2451,
      "Ġdig": 2452,
      "ĠResear": 2453,
      "Ġwind": 2454,
      "Ġopt": 2455,
      "ĠÂ": 2456,
      "ĠPark": 2457,
      "30": 2458,
      "Ġaccording": 2459,
      "Ġbelow": 2460,
      "ifornia": 2461,
      "Ã¡": 2462,
      "Ġprob": 2463,
      "Ġlo": 2464,
      "Ġprotect": 2465,
      "Ġentire": 2466,
      "Ġsepar": 2467,
      "ouncil": 2468,
      "gress": 2469,
      "ĠEuropean": 2470,
      "Ġground": 2471,
      "ĠSch": 2472,
      "Ġsens": 2473,
      "Ġphysical": 2474,
      "ĠAccording": 2475,
      "ĠInstit": 2476,
      "Ġalready": 2477,
      "Ġvalue": 2478,
      "ript": 2479,
      "Ġresearc": 2480,
      "ĠIm": 2481,
      "Ġactivities": 2482,
      "Ġgoing": 2483,
      "wh": 2484,
      "elling": 2485,
      "Ġcoll": 2486,
      "Ġgre": 2487,
      "oura": 2488,
      "ude": 2489,
      "aur": 2490,
      "ters": 2491,
      "ĠIndia": 2492,
      "ĠItal": 2493,
      "Ġabs": 2494,
      "ĠFrom": 2495,
      "Ġevidence": 2496,
      "ĠCalifornia": 2497,
      "ming": 2498,
      "ĠAng": 2499,
      "Ġstep": 2500,
      "Ġchall": 2501,
      "Ġwhite": 2502,
      "Ġknowledge": 2503,
      "ĠCanada": 2504,
      "Ġ2003": 2505,
      "Ġrights": 2506,
      "ables": 2507,
      "Ġfinal": 2508,
      "Ġ2001": 2509,
      "Ġways": 2510,
      "Ġanc": 2511,
      "iding": 2512,
      "ampions": 2513,
      "Ġ=": 2514,
      "ĠEngland": 2515,
      "ĠAlthough": 2516,
      "minist": 2517,
      "Ġparts": 2518,
      "Ġsouth": 2519,
      "Ġver": 2520,
      "eum": 2521,
      "ores": 2522,
      "Ġsold": 2523,
      "Ġcut": 2524,
      "ĠSm": 2525,
      "Ġoil": 2526,
      "Ġitself": 2527,
      "Ġquestion": 2528,
      "//": 2529,
      "Ġconc": 2530,
      "Ġmember": 2531,
      "Ġreceived": 2532,
      "ĠRec": 2533,
      "Ġproducts": 2534,
      ".)": 2535,
      "ume": 2536,
      "Ġcat": 2537,
      "ached": 2538,
      "Ġrate": 2539,
      "order": 2540,
      "Ġalmost": 2541,
      "duc": 2542,
      "Ġconcept": 2543,
      "ivision": 2544,
      "ĠMost": 2545,
      "Ġgra": 2546,
      "Ġgrowth": 2547,
      "Ġfire": 2548,
      "Ġattempt": 2549,
      "ĠLondon": 2550,
      "Ġfarm": 2551,
      "ĠMany": 2552,
      "Ġissues": 2553,
      "thern": 2554,
      "Ġcomplex": 2555,
      "aries": 2556,
      "Ġdone": 2557,
      "Ġbar": 2558,
      "hips": 2559,
      "Ġliter": 2560,
      "ĠTw": 2561,
      "hel": 2562,
      "Ġschools": 2563,
      "Ġthought": 2564,
      "Ġliving": 2565,
      "aring": 2566,
      "icles": 2567,
      "Ġthroughout": 2568,
      "Ġassociated": 2569,
      "Ġmind": 2570,
      "Ġsource": 2571,
      "ER": 2572,
      "ederal": 2573,
      "SA": 2574,
      "utions": 2575,
      "oor": 2576,
      "Ġmonths": 2577,
      "verage": 2578,
      "ĠApp": 2579,
      "ĠEast": 2580,
      "Ġdeg": 2581,
      "Ġlab": 2582,
      "Ġsurface": 2583,
      "ont": 2584,
      "Ġvill": 2585,
      "Ġpay": 2586,
      "Ġconduct": 2587,
      "Ġ50": 2588,
      "ners": 2589,
      "Ġactivity": 2590,
      "Ġpotential": 2591,
      "Ġmor": 2592,
      "Ġincreased": 2593,
      "Ġthemselves": 2594,
      "Ġevents": 2595,
      "rick": 2596,
      "Ġmilitary": 2597,
      "ĠChurch": 2598,
      "ĠPeople": 2599,
      "ĠEarth": 2600,
      "Ġmaint": 2601,
      "ĠRiver": 2602,
      "avy": 2603,
      "ĠEm": 2604,
      "Ġsize": 2605,
      "erous": 2606,
      "Ġrelated": 2607,
      "ĠFirst": 2608,
      "chan": 2609,
      "ĠAir": 2610,
      "25": 2611,
      "ctor": 2612,
      "Ġnature": 2613,
      "Ġrequired": 2614,
      "outhern": 2615,
      "Ġlay": 2616,
      "Ġeconomic": 2617,
      "ĠRoman": 2618,
      "amin": 2619,
      "Ġarticle": 2620,
      "Ġge": 2621,
      "ĠLeague": 2622,
      "Ġmem": 2623,
      "gar": 2624,
      "Ġsuff": 2625,
      "imately": 2626,
      "Ġmedical": 2627,
      "utes": 2628,
      "Ġpatients": 2629,
      "://": 2630,
      "Ġdetail": 2631,
      "Ġcop": 2632,
      "ĠOrder": 2633,
      "ĠSan": 2634,
      "ĠGree": 2635,
      "Ġhost": 2636,
      "Ġwhole": 2637,
      "Ġ190": 2638,
      "unic": 2639,
      "Ġpractice": 2640,
      "osition": 2641,
      "erve": 2642,
      "rest": 2643,
      "oses": 2644,
      "osis": 2645,
      "Ġpaper": 2646,
      "ference": 2647,
      "lying": 2648,
      "Ġreact": 2649,
      "tic": 2650,
      "Ġresources": 2651,
      "Ġquality": 2652,
      "Ġestablish": 2653,
      "medi": 2654,
      "bers": 2655,
      "na": 2656,
      "Ġfem": 2657,
      "ara": 2658,
      "Ġsymptoms": 2659,
      "Ġdrug": 2660,
      "reet": 2661,
      "Ġofficial": 2662,
      "Ã¼": 2663,
      "ĠMy": 2664,
      "ety": 2665,
      "ĠGovern": 2666,
      "ords": 2667,
      "Ġincludes": 2668,
      "fficient": 2669,
      "Ġflu": 2670,
      "Ġflow": 2671,
      "Ġaddress": 2672,
      "abit": 2673,
      "Ġattack": 2674,
      "ĠAssoci": 2675,
      "ĠChina": 2676,
      "Ġdied": 2677,
      "Ġindepend": 2678,
      "ha": 2679,
      "In": 2680,
      "Ġshows": 2681,
      "Ġprincip": 2682,
      "anies": 2683,
      "ĠChristian": 2684,
      "Ġregard": 2685,
      "Ġfig": 2686,
      "Ġborn": 2687,
      "go": 2688,
      "iment": 2689,
      "me": 2690,
      "Ġbroad": 2691,
      "Ġstudent": 2692,
      "Ġband": 2693,
      "rote": 2694,
      "ĠDist": 2695,
      "Ġmultip": 2696,
      "ĠEduc": 2697,
      "Ġever": 2698,
      "Ġson": 2699,
      "based": 2700,
      "ĠMich": 2701,
      "Ġaff": 2702,
      "Ġcross": 2703,
      "Ġsqu": 2704,
      "Ġfamil": 2705,
      "ucle": 2706,
      "Ġconcern": 2707,
      "Ġwent": 2708,
      "Ġ2013": 2709,
      "Ġpurp": 2710,
      "Ġaction": 2711,
      "Ġnut": 2712,
      "ĠĠĠ": 2713,
      "Ġclub": 2714,
      "Ġcareer": 2715,
      "ĠTrans": 2716,
      "Ġfish": 2717,
      "Ġsun": 2718,
      "Ġviol": 2719,
      "Ġdesigned": 2720,
      "Ġlot": 2721,
      "like": 2722,
      "aving": 2723,
      "Ġprovided": 2724,
      "Ġ1999": 2725,
      "Ġsurv": 2726,
      "iences": 2727,
      "ĠBro": 2728,
      "Ġcannot": 2729,
      "Ġclimate": 2730,
      "Ġquick": 2731,
      "century": 2732,
      "eration": 2733,
      "ĠAustralia": 2734,
      "Ġstarted": 2735,
      "asc": 2736,
      "Ġwebs": 2737,
      "Ġcapt": 2738,
      "usion": 2739,
      "ele": 2740,
      "aches": 2741,
      "Ġstructure": 2742,
      "iers": 2743,
      "ald": 2744,
      "Ġreported": 2745,
      "Ġmoney": 2746,
      "ĠServ": 2747,
      "Ġregular": 2748,
      "ĠSer": 2749,
      "Ġaccept": 2750,
      "ander": 2751,
      "Ġreally": 2752,
      "ĠMore": 2753,
      "Ġtraining": 2754,
      "rought": 2755,
      "Ġcomputer": 2756,
      "Ġroad": 2757,
      "Ġsoft": 2758,
      "Ġprovides": 2759,
      "Ġsure": 2760,
      "Ġversion": 2761,
      "hood": 2762,
      "ĠTur": 2763,
      "ivity": 2764,
      "cast": 2765,
      "atives": 2766,
      "Ġreading": 2767,
      "Ġgrad": 2768,
      "Ġsuccessful": 2769,
      "Ġadult": 2770,
      "Ġpersonal": 2771,
      "ĠCons": 2772,
      "Ġculture": 2773,
      "Ġemer": 2774,
      "Ġclose": 2775,
      "Ġvideo": 2776,
      "Ġmanagement": 2777,
      "198": 2778,
      "Ġplayer": 2779,
      "Ġanimals": 2780,
      "Ġ2002": 2781,
      "Ġidea": 2782,
      "ica": 2783,
      "ĠResearch": 2784,
      "Ġpred": 2785,
      "uments": 2786,
      "Ġinj": 2787,
      "Ġactually": 2788,
      "Ġreduce": 2789,
      "ĠHouse": 2790,
      "Ġclos": 2791,
      "umn": 2792,
      "Ġpressure": 2793,
      "Ġindustry": 2794,
      "izing": 2795,
      "Ġalthough": 2796,
      "ricult": 2797,
      "lymp": 2798,
      "use": 2799,
      "Ġfather": 2800,
      "arily": 2801,
      "Ġneeded": 2802,
      "Ġdescribed": 2803,
      "Ġability": 2804,
      "Ġbase": 2805,
      "irl": 2806,
      "acc": 2807,
      "Ġcondition": 2808,
      "Ġreview": 2809,
      "anish": 2810,
      "ening": 2811,
      "ĠCenter": 2812,
      "Ġopportun": 2813,
      "Ġassist": 2814,
      "ĠBel": 2815,
      "ĠBu": 2816,
      "itect": 2817,
      "ĠOlymp": 2818,
      "Ġsometimes": 2819,
      "Ġterms": 2820,
      "Ġrecomm": 2821,
      "istics": 2822,
      "vey": 2823,
      "Ġstandard": 2824,
      "ulated": 2825,
      "Ġmeaning": 2826,
      "ufact": 2827,
      "Ġtaking": 2828,
      "Ġwriting": 2829,
      "Ġsex": 2830,
      "eding": 2831,
      "Ġlonger": 2832,
      "Th": 2833,
      "ections": 2834,
      "Ġ189": 2835,
      "Ġearl": 2836,
      "Ġcomes": 2837,
      "Ġconsist": 2838,
      "anced": 2839,
      "ĠAfrican": 2840,
      "cks": 2841,
      "play": 2842,
      "Ġglobal": 2843,
      "Ġrecent": 2844,
      "Ġdiet": 2845,
      "Ġlink": 2846,
      "Ġhours": 2847,
      "Ġmedia": 2848,
      "Ġrout": 2849,
      "Ġproduce": 2850,
      "fl": 2851,
      "leep": 2852,
      "ĠFin": 2853,
      "Ġquestions": 2854,
      "Ġrespect": 2855,
      "Ġinvolved": 2856,
      "Ġskills": 2857,
      "Ġaverage": 2858,
      "ta": 2859,
      "Ġansw": 2860,
      "Ġsoil": 2861,
      "rial": 2862,
      "Ġste": 2863,
      "Ġmovement": 2864,
      "Ġresearchers": 2865,
      "Ġsimple": 2866,
      "ĠBlack": 2867,
      "Ġmaterials": 2868,
      "Ġpath": 2869,
      "asons": 2870,
      "Ġpoints": 2871,
      "oles": 2872,
      "Ġprote": 2873,
      "ĠVal": 2874,
      "rect": 2875,
      "Ġeffective": 2876,
      "Ġincreasing": 2877,
      "ĠDavid": 2878,
      "24": 2879,
      "ises": 2880,
      "ĠRed": 2881,
      "Ġbreak": 2882,
      "Ġmother": 2883,
      "off": 2884,
      "ply": 2885,
      "ĠBra": 2886,
      "Ġserved": 2887,
      "ĠPress": 2888,
      "ĠGermany": 2889,
      "ĠTra": 2890,
      "Ġ/": 2891,
      "Ġcaused": 2892,
      "ging": 2893,
      "Ġpie": 2894,
      "Ġdou": 2895,
      "ĠPre": 2896,
      "Ġ23": 2897,
      "pite": 2898,
      "Ġyet": 2899,
      "Ġuses": 2900,
      "ĠArch": 2901,
      "Ġparents": 2902,
      "Ġweight": 2903,
      "Ġgas": 2904,
      "ĠInter": 2905,
      "Ġbur": 2906,
      "onse": 2907,
      "ror": 2908,
      "ĠWash": 2909,
      "ender": 2910,
      "mon": 2911,
      "Ġunderstanding": 2912,
      "ico": 2913,
      "uth": 2914,
      "Ġ1998": 2915,
      "omb": 2916,
      "Ġsat": 2917,
      "hing": 2918,
      "Ġtelevision": 2919,
      "Ġcolor": 2920,
      "AR": 2921,
      "Ġjob": 2922,
      "Ġlargest": 2923,
      "ĠHol": 2924,
      "ĠBer": 2925,
      "right": 2926,
      "Ġstop": 2927,
      "Ġforce": 2928,
      "atter": 2929,
      "itation": 2930,
      "ĠScience": 2931,
      "ĠMor": 2932,
      "Ġanalysis": 2933,
      "Ġlost": 2934,
      "Ġgenerally": 2935,
      "ĠRepublic": 2936,
      "Ġonline": 2937,
      "Ġgreen": 2938,
      "Ġnecessary": 2939,
      "ĠGeneral": 2940,
      "men": 2941,
      "imin": 2942,
      "Ġfat": 2943,
      "isions": 2944,
      "Ġapproach": 2945,
      "Ġprograms": 2946,
      "Ġtax": 2947,
      "Ġstress": 2948,
      "ĠGreat": 2949,
      "Ġbooks": 2950,
      "Ġut": 2951,
      "rast": 2952,
      "Ġoutside": 2953,
      "ift": 2954,
      "Ġhtt": 2955,
      "Ġinstit": 2956,
      "60": 2957,
      "ĠDepartment": 2958,
      "ĠPresident": 2959,
      "Ġpattern": 2960,
      "udd": 2961,
      "Ġmove": 2962,
      "ĠInstitute": 2963,
      "Ġnetwork": 2964,
      "ĠSince": 2965,
      "Ġcommit": 2966,
      "Ġcivil": 2967,
      "Ġcompanies": 2968,
      "ellow": 2969,
      "Ġwrote": 2970,
      "Ġmach": 2971,
      "Ġtell": 2972,
      "aged": 2973,
      "Ġvariety": 2974,
      "Ġskin": 2975,
      "Ġmeasure": 2976,
      "ground": 2977,
      "Ġforms": 2978,
      "Ġvari": 2979,
      "ĠCour": 2980,
      "ĠGo": 2981,
      "Ġcalc": 2982,
      "Ġchemical": 2983,
      "Ġmoved": 2984,
      "Ġthreat": 2985,
      "Ġinte": 2986,
      "ray": 2987,
      "ĠSim": 2988,
      "Ġ2014": 2989,
      "Ġselect": 2990,
      "Ġ40": 2991,
      "hy": 2992,
      "Ġmer": 2993,
      "Ġcontinued": 2994,
      "ĠAfrica": 2995,
      "Ġshown": 2996,
      "ĠSte": 2997,
      "Ġinstead": 2998,
      "Ġbring": 2999,
      "Ġsociety": 3000,
      "Ġdog": 3001,
      "Ġsound": 3002,
      "ĠUnion": 3003,
      "Ġindividuals": 3004,
      "Ġperformance": 3005,
      "ĠFil": 3006,
      "Ġcomplete": 3007,
      "Ġmiss": 3008,
      "Ġsense": 3009,
      "roy": 3010,
      "Ġexerc": 3011,
      "aily": 3012,
      "ĠPat": 3013,
      "Ġremov": 3014,
      "ribution": 3015,
      "hold": 3016,
      "ari": 3017,
      "ĠÃ": 3018,
      "Ġmale": 3019,
      "Ġleaders": 3020,
      "Ġder": 3021,
      "Ġsil": 3022,
      "Ġissue": 3023,
      "Ġemb": 3024,
      "Ġmedic": 3025,
      "Ġthus": 3026,
      "Ġfeature": 3027,
      "Ġ1990": 3028,
      "astic": 3029,
      "Ġap": 3030,
      "atively": 3031,
      "Ġadded": 3032,
      "ky": 3033,
      "Ġhimself": 3034,
      "Ġwood": 3035,
      "Ġextrem": 3036,
      "Ġ2015": 3037,
      "Ġparticularly": 3038,
      "Ġvict": 3039,
      "year": 3040,
      "oe": 3041,
      "Ġinteract": 3042,
      "Ġlack": 3043,
      "ĠWashington": 3044,
      "reng": 3045,
      "ES": 3046,
      "ension": 3047,
      "ĠLa": 3048,
      "Ġtarg": 3049,
      "ĠPal": 3050,
      "ID": 3051,
      "ĠPort": 3052,
      "40": 3053,
      "vention": 3054,
      "Ġfactors": 3055,
      "Ġforest": 3056,
      "Ġfight": 3057,
      "ĠFrance": 3058,
      "Ġmechan": 3059,
      "que": 3060,
      "ĠAssociation": 3061,
      "ronic": 3062,
      "inese": 3063,
      "ĠGeorge": 3064,
      "AT": 3065,
      "oul": 3066,
      "Ġ22": 3067,
      "Ġnovel": 3068,
      "Ġmanufact": 3069,
      "Ġfav": 3070,
      "Ġtrue": 3071,
      "Ġfeatures": 3072,
      "pro": 3073,
      "oyal": 3074,
      "itch": 3075,
      "uge": 3076,
      "ĠJames": 3077,
      "Ġpoor": 3078,
      "Ġtravel": 3079,
      "Ġnight": 3080,
      "Ġassess": 3081,
      "Ġtraditional": 3082,
      "Ġsubst": 3083,
      "upp": 3084,
      "anks": 3085,
      "Ġcontact": 3086,
      "Ġtheory": 3087,
      "ĠLaw": 3088,
      "Ġdecl": 3089,
      "ĠCouncil": 3090,
      "Ġ188": 3091,
      "Ġaud": 3092,
      "Ġlog": 3093,
      "ament": 3094,
      "ĠDay": 3095,
      "Ġcontent": 3096,
      "Ġ27": 3097,
      "Ġ28": 3098,
      "Ġtransl": 3099,
      "itar": 3100,
      "Ġmatter": 3101,
      "Ġsources": 3102,
      "ĠRober": 3103,
      "Ġ2016": 3104,
      "Ġeth": 3105,
      "rab": 3106,
      "Ġtalk": 3107,
      "Ġcentral": 3108,
      "ĠOf": 3109,
      "Ġpoll": 3110,
      "ĠVir": 3111,
      "ctions": 3112,
      "Ġnumbers": 3113,
      "Ġetc": 3114,
      "--": 3115,
      "Ġannoun": 3116,
      "Ġmid": 3117,
      "Ġwebsite": 3118,
      "Ġbehavior": 3119,
      "Ġformed": 3120,
      "Ġagre": 3121,
      "iter": 3122,
      "ĠMex": 3123,
      "Ġdraw": 3124,
      "Ġmount": 3125,
      "Ġexpress": 3126,
      "ĠMil": 3127,
      "istry": 3128,
      "ounter": 3129,
      "Ġenvironmental": 3130,
      "Ġpsych": 3131,
      "Ġrock": 3132,
      "Ġleading": 3133,
      "ĠBi": 3134,
      "Ġwid": 3135,
      "ength": 3136,
      "Ġten": 3137,
      "ÃŃ": 3138,
      "irit": 3139,
      "ĠHere": 3140,
      "ervation": 3141,
      "Ġcust": 3142,
      "Ġfront": 3143,
      "round": 3144,
      "Ġking": 3145,
      "âĢ¦": 3146,
      "oud": 3147,
      "ancial": 3148,
      "Ġprec": 3149,
      "Ġlove": 3150,
      "Ġast": 3151,
      "Ġforces": 3152,
      "ĠPaul": 3153,
      "ĠCong": 3154,
      "Ġsyn": 3155,
      "Ġlives": 3156,
      "ĠRich": 3157,
      "Ġstri": 3158,
      "Ġdemon": 3159,
      "iff": 3160,
      "ĠCath": 3161,
      "Ġcontain": 3162,
      "Ġdeal": 3163,
      "Ġavoid": 3164,
      "Ġfollowed": 3165,
      "Ġstyle": 3166,
      "aint": 3167,
      "Ġgreater": 3168,
      "ĠThom": 3169,
      "Ġ26": 3170,
      "Ġcapital": 3171,
      "Ġimprove": 3172,
      "Ġfa": 3173,
      "Ġprimary": 3174,
      "Ġresponse": 3175,
      "ula": 3176,
      "Ġtemperature": 3177,
      "rian": 3178,
      "Ġmethods": 3179,
      "ĠAustralian": 3180,
      "Ġspread": 3181,
      "Ġwhose": 3182,
      "Ġsea": 3183,
      "ael": 3184,
      "ĠList": 3185,
      "Ġdocument": 3186,
      "aging": 3187,
      "Ġdeep": 3188,
      "Ġhealthy": 3189,
      "head": 3190,
      "BC": 3191,
      "ĠKe": 3192,
      "den": 3193,
      "ĠEducation": 3194,
      "Ġimplement": 3195,
      "Ġcit": 3196,
      "Ġheat": 3197,
      "Ġresist": 3198,
      "Ġchurch": 3199,
      "Ġseem": 3200,
      "cies": 3201,
      "Ġpage": 3202,
      "rag": 3203,
      "oming": 3204,
      "uman": 3205,
      "craft": 3206,
      "isl": 3207,
      "Ġtransport": 3208,
      "Ġestim": 3209,
      "Ġshare": 3210,
      "ĠUs": 3211,
      "Ġearth": 3212,
      "Ġcarbon": 3213,
      "ims": 3214,
      "Ġconstruction": 3215,
      "alls": 3216,
      "Ġjud": 3217,
      "Ġsimply": 3218,
      "ĠDon": 3219,
      "St": 3220,
      "ĠChinese": 3221,
      "ties": 3222,
      "ĠWestern": 3223,
      "Ġappl": 3224,
      "197": 3225,
      "imum": 3226,
      "eared": 3227,
      "odes": 3228,
      "Ġvisit": 3229,
      "Ġtrack": 3230,
      "ĠCanadian": 3231,
      "Ġfilms": 3232,
      "Ġrail": 3233,
      "Ġaltern": 3234,
      "ĠUK": 3235,
      "Ġface": 3236,
      "ĠInc": 3237,
      "aid": 3238,
      "time": 3239,
      "Ġ1980": 3240,
      "ropri": 3241,
      "Ġbehind": 3242,
      "osing": 3243,
      "org": 3244,
      "rapy": 3245,
      "ĠDis": 3246,
      "Ġlarger": 3247,
      "ĠDem": 3248,
      "Ġstreng": 3249,
      "Ġinvestig": 3250,
      "Ġconstit": 3251,
      "abet": 3252,
      "Ġprivate": 3253,
      "Ġactive": 3254,
      "Ġpolicy": 3255,
      "idents": 3256,
      "ests": 3257,
      "igr": 3258,
      "Ġnucle": 3259,
      "Ġintegr": 3260,
      "ĠChild": 3261,
      "ibrary": 3262,
      "Ġadminist": 3263,
      "ought": 3264,
      "Ġbeginning": 3265,
      "ĠProv": 3266,
      "fect": 3267,
      "Ġadditional": 3268,
      "Ġcauses": 3269,
      "Ġbrought": 3270,
      "used": 3271,
      "ĠNor": 3272,
      "ician": 3273,
      "inary": 3274,
      "ĠMod": 3275,
      "Ã¶": 3276,
      "rael": 3277,
      "Ġpict": 3278,
      "ternet": 3279,
      "ĠChe": 3280,
      "Ġtakes": 3281,
      "itude": 3282,
      "ago": 3283,
      "Ġhous": 3284,
      "Ġbirth": 3285,
      "Ġcheck": 3286,
      "light": 3287,
      "ĠBat": 3288,
      "ulate": 3289,
      "ĠJust": 3290,
      "ĠFre": 3291,
      "ĠAdd": 3292,
      "ĠJapanese": 3293,
      "ville": 3294,
      "Ġmicro": 3295,
      "Ġimmedi": 3296,
      "Ġencoura": 3297,
      "Ġple": 3298,
      "Ġworked": 3299,
      "27": 3300,
      "Ġancient": 3301,
      "Ġox": 3302,
      "arr": 3303,
      "Ġlaun": 3304,
      "28": 3305,
      "ĠSociety": 3306,
      "Ġ2017": 3307,
      "Ġhon": 3308,
      "Ġi": 3309,
      "29": 3310,
      "Ġ:": 3311,
      "Ġhyd": 3312,
      "Ġprofessional": 3313,
      "Ġimage": 3314,
      "omet": 3315,
      "ĠCO": 3316,
      "Ġtowards": 3317,
      "unicip": 3318,
      "inter": 3319,
      "Ġcoast": 3320,
      "Ġcontinue": 3321,
      "ĠAnt": 3322,
      "bit": 3323,
      "Ġhor": 3324,
      "ĠYour": 3325,
      "Ġplaces": 3326,
      "Ġclean": 3327,
      "ĠQue": 3328,
      "Ġthing": 3329,
      "ocr": 3330,
      "atin": 3331,
      "uries": 3332,
      "Ġpositive": 3333,
      "yp": 3334,
      "Ġmag": 3335,
      "Ġcontribut": 3336,
      "ĠArmy": 3337,
      "Ġharm": 3338,
      "aker": 3339,
      "Ġexec": 3340,
      "Ġbelieve": 3341,
      "Ġunivers": 3342,
      "Ġcompon": 3343,
      "Ġsoon": 3344,
      "back": 3345,
      "ĠMark": 3346,
      "ees": 3347,
      "Ġful": 3348,
      "Ġconcent": 3349,
      "Ġsection": 3350,
      "iot": 3351,
      "Ġdefin": 3352,
      "Ġfru": 3353,
      "ĠJes": 3354,
      "26": 3355,
      "ĠCup": 3356,
      "ception": 3357,
      "Ġcommer": 3358,
      "Ġlimited": 3359,
      "Ġtitle": 3360,
      "Ġsaw": 3361,
      "Ġelements": 3362,
      "Ġmultiple": 3363,
      "Ġbasic": 3364,
      "Ġprobably": 3365,
      "Ġpromot": 3366,
      "Ġserious": 3367,
      "Ġelectric": 3368,
      "ription": 3369,
      "ĠLou": 3370,
      "Ġattention": 3371,
      "Ġmess": 3372,
      "Ġgoal": 3373,
      "ĠCur": 3374,
      "Ġcommunities": 3375,
      "Ġtherefore": 3376,
      "Ġdamage": 3377,
      "ixed": 3378,
      "oke": 3379,
      "berg": 3380,
      "Ġcred": 3381,
      "Ġprior": 3382,
      "Ġdiagn": 3383,
      "Ġsus": 3384,
      "aign": 3385,
      "Ġadop": 3386,
      "nes": 3387,
      "Ġremains": 3388,
      "Ġreve": 3389,
      "ĠMart": 3390,
      "Ġnormal": 3391,
      "ĠMal": 3392,
      "Ġreligious": 3393,
      ");": 3394,
      "Ġacqu": 3395,
      "Ġdirectly": 3396,
      "ĠTreat": 3397,
      "Ġcenter": 3398,
      "ĠJos": 3399,
      "ceed": 3400,
      "Ġsafety": 3401,
      "Ġgrowing": 3402,
      "ett": 3403,
      "Ġdeliver": 3404,
      "Ġsleep": 3405,
      "ĠMary": 3406,
      "Ġsal": 3407,
      "airs": 3408,
      "Ġeasy": 3409,
      "Ġmagn": 3410,
      "ĠSl": 3411,
      "Ġbenefits": 3412,
      "Ġeight": 3413,
      "itz": 3414,
      "alled": 3415,
      "Ġdeveloping": 3416,
      "IS": 3417,
      "Ġphil": 3418,
      "Ã³": 3419,
      "bl": 3420,
      "Ġir": 3421,
      "inct": 3422,
      "hest": 3423,
      "Ġwide": 3424,
      "Ġscientists": 3425,
      "Ġvillage": 3426,
      "ils": 3427,
      "Ġ186": 3428,
      "ĠTechn": 3429,
      "ĠChampions": 3430,
      "Ġveh": 3431,
      "Ġpresident": 3432,
      "gency": 3433,
      "Ġdoing": 3434,
      "Ġidentify": 3435,
      "Ġbal": 3436,
      "ĠJe": 3437,
      "Ġcontains": 3438,
      "Ġprep": 3439,
      "Ġsch": 3440,
      "Ġ187": 3441,
      "ĠCommun": 3442,
      "Ġcompared": 3443,
      "undred": 3444,
      "Ġcomplet": 3445,
      "eks": 3446,
      "Ġsecurity": 3447,
      "ĠOver": 3448,
      "Ġbacter": 3449,
      "ĠHen": 3450,
      "II": 3451,
      "irm": 3452,
      "ĠVol": 3453,
      "ĠAcadem": 3454,
      "ĠPublic": 3455,
      "ĠProf": 3456,
      "Ġeat": 3457,
      "Ġgold": 3458,
      "anded": 3459,
      "ida": 3460,
      "ĠNet": 3461,
      "Ġdistrict": 3462,
      "ĠAlex": 3463,
      "Ġmonth": 3464,
      "Ġchalleng": 3465,
      "ĠNow": 3466,
      "Ġneigh": 3467,
      "Ġlif": 3468,
      "ields": 3469,
      "wood": 3470,
      "Ġtree": 3471,
      "Ġideas": 3472,
      "Ġapprox": 3473,
      "Ġ29": 3474,
      "IN": 3475,
      "Ġthous": 3476,
      "Ġparty": 3477,
      "Ġinterp": 3478,
      "Ġreflect": 3479,
      "nown": 3480,
      "Ġvia": 3481,
      "mission": 3482,
      "ĠYear": 3483,
      "cean": 3484,
      "Ġstar": 3485,
      "Ġslow": 3486,
      "Ġlands": 3487,
      "Ġstage": 3488,
      "Ġwild": 3489,
      "Ġarchitect": 3490,
      "Ġinside": 3491,
      "Ġsust": 3492,
      "Ġhighly": 3493,
      "Ġcourt": 3494,
      "Ġinfluence": 3495,
      "Ġgave": 3496,
      "ĠDistrict": 3497,
      "oring": 3498,
      "field": 3499,
      "Ġ2018": 3500,
      "ĠIsrael": 3501,
      "ĠGreen": 3502,
      "Ġanimal": 3503,
      "Ġcolon": 3504,
      "Ġnews": 3505,
      "Ġoccup": 3506,
      "Ġ#": 3507,
      "Ġquickly": 3508,
      "ĠParty": 3509,
      "Ġhot": 3510,
      "ĠAut": 3511,
      "izations": 3512,
      "eph": 3513,
      "AN": 3514,
      "arden": 3515,
      "Ġobt": 3516,
      "haps": 3517,
      "uit": 3518,
      "Ġoffice": 3519,
      "oes": 3520,
      "Ġmention": 3521,
      "iles": 3522,
      "Ġcorrect": 3523,
      "raw": 3524,
      "hens": 3525,
      "Ġlines": 3526,
      "Ġinn": 3527,
      "room": 3528,
      "Ġdecision": 3529,
      "Ġsummer": 3530,
      "igned": 3531,
      "Ġfamilies": 3532,
      "Ġprogress": 3533,
      "ĠCentral": 3534,
      "Ġrelationship": 3535,
      "Ġcast": 3536,
      "ancy": 3537,
      "Ġfeet": 3538,
      "Ġadapt": 3539,
      "Ġrelease": 3540,
      "pid": 3541,
      "ĠScott": 3542,
      "ĠBec": 3543,
      "Ġscientific": 3544,
      "Ġsafe": 3545,
      "ĠCam": 3546,
      "ĠSpanish": 3547,
      "ste": 3548,
      "AS": 3549,
      "Ġsymb": 3550,
      "Ġcontract": 3551,
      "ĠMount": 3552,
      "Ġallows": 3553,
      "Ġeast": 3554,
      "ĠGreek": 3555,
      "ij": 3556,
      "leg": 3557,
      "Ġvirus": 3558,
      "ĠIr": 3559,
      "Ġensure": 3560,
      "olar": 3561,
      "Ġcurrently": 3562,
      "Ġradio": 3563,
      "Ġstay": 3564,
      "Ġec": 3565,
      "Ġtour": 3566,
      "Ġreturned": 3567,
      "ĠTurk": 3568,
      "Ġremain": 3569,
      "Ġtrade": 3570,
      "omp": 3571,
      "ingu": 3572,
      "Ġinstr": 3573,
      "ĠIsland": 3574,
      "hat": 3575,
      "ams": 3576,
      "ria": 3577,
      "van": 3578,
      "Ġplaced": 3579,
      "Ġblock": 3580,
      "Ġacid": 3581,
      "ĠSpec": 3582,
      "Ġago": 3583,
      "Ġpen": 3584,
      "ĠProt": 3585,
      "Ġvoc": 3586,
      "Ġemot": 3587,
      "IC": 3588,
      "Ġang": 3589,
      "Ġopened": 3590,
      "ĠTex": 3591,
      "Ġden": 3592,
      "ĠRet": 3593,
      "Ġdisp": 3594,
      "Ġallowed": 3595,
      "olec": 3596,
      "Ġdaily": 3597,
      "ĠAlso": 3598,
      "Ġdiv": 3599,
      "aters": 3600,
      "ĠMet": 3601,
      "Ġfinancial": 3602,
      "Ġepis": 3603,
      "Ġintroduced": 3604,
      "Ġminutes": 3605,
      "ĠAp": 3606,
      "Ġanti": 3607,
      "Ġveget": 3608,
      "Ġcard": 3609,
      "Ġdefe": 3610,
      "ĠCourt": 3611,
      "ĠMuseum": 3612,
      "ĠAre": 3613,
      "Ġcele": 3614,
      "Ġdemonstr": 3615,
      "illing": 3616,
      "Ġnation": 3617,
      "Ġspeed": 3618,
      "Ġwest": 3619,
      "tee": 3620,
      "inated": 3621,
      "ĠEven": 3622,
      "Ġhelps": 3623,
      "Ġlegal": 3624,
      "ĠSal": 3625,
      "Ġextra": 3626,
      "Ġteachers": 3627,
      "Ġlabor": 3628,
      "pir": 3629,
      "Ġnearly": 3630,
      "Ġeventually": 3631,
      "Ġsurround": 3632,
      "lam": 3633,
      "Ch": 3634,
      "Ġproperty": 3635,
      "ĠStreet": 3636,
      "Ġsem": 3637,
      "Ġdang": 3638,
      "Ġagricult": 3639,
      "Ġwalk": 3640,
      "ned": 3641,
      "ospital": 3642,
      "atur": 3643,
      "Ġlocation": 3644,
      "OR": 3645,
      "Ġaspect": 3646,
      "Ġ1970": 3647,
      "Ġsoftware": 3648,
      "mar": 3649,
      "Ġtrees": 3650,
      "Ġdestroy": 3651,
      "lor": 3652,
      "Ġscreen": 3653,
      "ĠUnder": 3654,
      "Ġstru": 3655,
      "Ġbirths": 3656,
      "Ġearlier": 3657,
      "Ġrecorded": 3658,
      "Ġquite": 3659,
      "Ġpurch": 3660,
      "Ġcapac": 3661,
      "ĠFoot": 3662,
      "Ġappeared": 3663,
      "ĠDevelop": 3664,
      "Ġbrother": 3665,
      "reland": 3666,
      "Ġriver": 3667,
      "ĠSystem": 3668,
      "ĠWil": 3669,
      "osoph": 3670,
      "Ġcarry": 3671,
      "Ġhar": 3672,
      "istan": 3673,
      "ĠSecond": 3674,
      "ĠBay": 3675,
      "Ġseven": 3676,
      "Ġcollection": 3677,
      "Ġdecre": 3678,
      "aught": 3679,
      "Ġeasily": 3680,
      "AC": 3681,
      "och": 3682,
      "Ġessential": 3683,
      "ĠOur": 3684,
      "Ġround": 3685,
      "Ġlaws": 3686,
      "Ġtransfer": 3687,
      "Ġfoods": 3688,
      "Ġcitiz": 3689,
      "ying": 3690,
      "ĠAnother": 3691,
      "osure": 3692,
      "ously": 3693,
      "ĠThomas": 3694,
      "imal": 3695,
      "Ġweeks": 3696,
      "Ġlength": 3697,
      "Ġdegree": 3698,
      "astern": 3699,
      "Ġfederal": 3700,
      "Ġtarget": 3701,
      "ĠBecause": 3702,
      "ĠSur": 3703,
      "Ġ1997": 3704,
      "Ġdifference": 3705,
      "elt": 3706,
      "iques": 3707,
      "Ġaware": 3708,
      "aughter": 3709,
      "Ġice": 3710,
      "Ġhumans": 3711,
      "We": 3712,
      "gn": 3713,
      "Ġgetting": 3714,
      "ĠRel": 3715,
      "Ġsett": 3716,
      "Ġsequ": 3717,
      "Ġunique": 3718,
      "ĠCatholic": 3719,
      "Ġdark": 3720,
      "ĠâĢ¢": 3721,
      "ĠRoad": 3722,
      "ipment": 3723,
      "ech": 3724,
      "cont": 3725,
      "Ġkilled": 3726,
      "Ġlooking": 3727,
      "Ġcritical": 3728,
      "ĠMusic": 3729,
      "Ġ--": 3730,
      "Ġsearch": 3731,
      "unt": 3732,
      "Ġbecomes": 3733,
      "Ġdetermine": 3734,
      "Ġtypically": 3735,
      "ĠHall": 3736,
      "oviet": 3737,
      "ĠDivision": 3738,
      "ĠGovernment": 3739,
      "known": 3740,
      "ston": 3741,
      "Ġcustom": 3742,
      "ĠRobert": 3743,
      "ĠFore": 3744,
      "Ġchanged": 3745,
      "Ġhundred": 3746,
      "ĠIreland": 3747,
      "Ġfriends": 3748,
      "Ġdate": 3749,
      "Ġbit": 3750,
      "ĠRev": 3751,
      "ĠSam": 3752,
      "Ġ2019": 3753,
      "Ġimpl": 3754,
      "Ġhabit": 3755,
      "Ġtend": 3756,
      "isms": 3757,
      "ĠSocial": 3758,
      "Ġdead": 3759,
      "ĠJournal": 3760,
      "Ġcultural": 3761,
      "Ġtable": 3762,
      "ĠIts": 3763,
      "omy": 3764,
      "Ġappropri": 3765,
      "joy": 3766,
      "Ġsomeone": 3767,
      "Ġorganization": 3768,
      "Ġjournal": 3769,
      "ĠMac": 3770,
      "Ġwarm": 3771,
      "gypt": 3772,
      "Ġbasis": 3773,
      "Ġpatient": 3774,
      "Ġult": 3775,
      "Ġ60": 3776,
      "vement": 3777,
      "Ġfast": 3778,
      "odies": 3779,
      "vert": 3780,
      "Ġgot": 3781,
      "ĠWater": 3782,
      "Ġeye": 3783,
      "ports": 3784,
      "Ġperformed": 3785,
      "ĠCharles": 3786,
      "ustr": 3787,
      "ĠPri": 3788,
      "Ġ2020": 3789,
      "ĠGroup": 3790,
      "Ġadj": 3791,
      "Ġvo": 3792,
      "Ġ1996": 3793,
      "Ġfr": 3794,
      "orial": 3795,
      "Ġteaching": 3796,
      "ĠJewish": 3797,
      "Ġseems": 3798,
      "ĠRad": 3799,
      "ĠDel": 3800,
      "ĠTwo": 3801,
      "estic": 3802,
      "asion": 3803,
      "ĠRail": 3804,
      "Ġvot": 3805,
      "ĠMat": 3806,
      "urban": 3807,
      "ero": 3808,
      "ĠRoyal": 3809,
      "ya": 3810,
      "nel": 3811,
      "bert": 3812,
      "ĠBC": 3813,
      "Ġbad": 3814,
      "Ġmom": 3815,
      "Ġmiddle": 3816,
      "Ġacadem": 3817,
      "Ġcontinu": 3818,
      "ĠJesus": 3819,
      "ĠMr": 3820,
      "Ġdoctor": 3821,
      "Ġcompleted": 3822,
      "ĠSen": 3823,
      "Ġnames": 3824,
      "ĠKingdom": 3825,
      "Ġreach": 3826,
      "ĠHistor": 3827,
      "Ġprotection": 3828,
      "ector": 3829,
      "Ġsites": 3830,
      "Ġcampaign": 3831,
      "oma": 3832,
      "ĠSub": 3833,
      "Ġsupply": 3834,
      "liam": 3835,
      "Ġquant": 3836,
      "Ġbeg": 3837,
      "ĠInt": 3838,
      "Ġdry": 3839,
      "antic": 3840,
      "Ġhands": 3841,
      "Ġmajority": 3842,
      "Ġresponsible": 3843,
      "Ġconstruct": 3844,
      "www": 3845,
      "era": 3846,
      "mitted": 3847,
      "Ġtold": 3848,
      "aled": 3849,
      "ĠCongress": 3850,
      "ios": 3851,
      "Ġanaly": 3852,
      "Ġvalues": 3853,
      "Ġtools": 3854,
      "wor": 3855,
      "Ġpurpose": 3856,
      "eles": 3857,
      "Ġpack": 3858,
      "Ġaward": 3859,
      "Ġx": 3860,
      "coh": 3861,
      "Ġterrit": 3862,
      "Ġbank": 3863,
      "ĠRead": 3864,
      "ĠSun": 3865,
      "Ġdoesn": 3866,
      "Ġsituation": 3867,
      "iance": 3868,
      "Ġwoman": 3869,
      "Ġworkers": 3870,
      "Ġstaff": 3871,
      "Ġboard": 3872,
      "Ġdeaths": 3873,
      "Ġfemale": 3874,
      "ĠClub": 3875,
      "ĠSk": 3876,
      "Ġsolar": 3877,
      "Ġproced": 3878,
      "Ġautom": 3879,
      "ĠFurther": 3880,
      "ĠEv": 3881,
      "Ġmental": 3882,
      "izes": 3883,
      "ellig": 3884,
      "rogen": 3885,
      "Ġbab": 3886,
      "uate": 3887,
      "Ġrules": 3888,
      "Ġefforts": 3889,
      "ĠAv": 3890,
      "Ġrare": 3891,
      "Ġbuildings": 3892,
      "ĠAmericans": 3893,
      "Ġbattle": 3894,
      "rim": 3895,
      "Ġsmaller": 3896,
      "Ġeval": 3897,
      "ĠWhite": 3898,
      "Ġremained": 3899,
      "Ġelse": 3900,
      "Ġcities": 3901,
      "eed": 3902,
      "porary": 3903,
      "liament": 3904,
      "Ġhom": 3905,
      "Ġannounced": 3906,
      "Ġsn": 3907,
      "Ġcode": 3908,
      "ĠTexas": 3909,
      "Ġrule": 3910,
      "ext": 3911,
      "Ġprojects": 3912,
      "ĠBur": 3913,
      "Ġdirector": 3914,
      "Ġvit": 3915,
      "ĠEmp": 3916,
      "Ġâ": 3917,
      "ĠMichael": 3918,
      "Ġspeak": 3919,
      "ĠLouis": 3920,
      "orders": 3921,
      "Ġdrink": 3922,
      "Ġunit": 3923,
      "Ġmission": 3924,
      "80": 3925,
      "ĠClass": 3926,
      "Ġfeed": 3927,
      "ĠEgypt": 3928,
      "wide": 3929,
      "ĠSoviet": 3930,
      "vest": 3931,
      "ĠRussian": 3932,
      "Ġcommonly": 3933,
      "ĠĠĠĠĠĠĠĠ": 3934,
      "Ġstatus": 3935,
      "Ġdiseases": 3936,
      "ĠTheir": 3937,
      "Ġ1995": 3938,
      "ĠMiss": 3939,
      "Ġconflic": 3940,
      "sec": 3941,
      "Ġmill": 3942,
      "Ġdiscovered": 3943,
      "iency": 3944,
      "Ġasked": 3945,
      "Ġhistorical": 3946,
      "ĠSum": 3947,
      "ĠOff": 3948,
      "Ġgirl": 3949,
      "Ġeconomy": 3950,
      "west": 3951,
      "acters": 3952,
      "hemat": 3953,
      "Ġplaying": 3954,
      "Äģ": 3955,
      "Ġcontroll": 3956,
      "pped": 3957,
      "Ġpan": 3958,
      "can": 3959,
      "Ġolder": 3960,
      "ranch": 3961,
      "Ġrapid": 3962,
      "Ġappears": 3963,
      "unk": 3964,
      "ĠAtl": 3965,
      "Ġrace": 3966,
      "Ġfounded": 3967,
      "ĠAward": 3968,
      "rad": 3969,
      "ĠColumb": 3970,
      "Ġisland": 3971,
      "Ġdigital": 3972,
      "Ġcommercial": 3973,
      "change": 3974,
      "ĠFranc": 3975,
      "Ġhighest": 3976,
      "Ġmemory": 3977,
      "life": 3978,
      "Ġwife": 3979,
      "Ġkids": 3980,
      "Ġtiss": 3981,
      "rief": 3982,
      "Ġcateg": 3983,
      "Ġpark": 3984,
      "irection": 3985,
      "Ġfit": 3986,
      "Ġimages": 3987,
      "ĠOld": 3988,
      "ologies": 3989,
      "Ġbox": 3990,
      "ĠArab": 3991,
      "ĠFlor": 3992,
      "Ġprotein": 3993,
      "ĠTod": 3994,
      "Ġones": 3995,
      "Ġqual": 3996,
      "35": 3997,
      "ares": 3998,
      "Ġexact": 3999,
      "where": 4000,
      "more": 4001,
      "Ġrecover": 4002,
      "bre": 4003,
      "ĠFound": 4004,
      "Ġoverall": 4005,
      "Ġtrib": 4006,
      "Ġspirit": 4007,
      "water": 4008,
      "Ġbeaut": 4009,
      "fully": 4010,
      "utive": 4011,
      "ĠEach": 4012,
      "yd": 4013,
      "isation": 4014,
      "abetes": 4015,
      "Ġenjoy": 4016,
      "ĠService": 4017,
      "ĠProgram": 4018,
      "Ġapplication": 4019,
      "Ġnorthern": 4020,
      "Ġroom": 4021,
      "ON": 4022,
      "ĠThen": 4023,
      "cape": 4024,
      "Ġord": 4025,
      "Ġleaves": 4026,
      "set": 4027,
      "Ġreb": 4028,
      "Ġvacc": 4029,
      "Ġgives": 4030,
      "ĠCompany": 4031,
      "Ġcand": 4032,
      "Ġoperations": 4033,
      "Ġclin": 4034,
      "edom": 4035,
      "Ġwrite": 4036,
      "ogen": 4037,
      "Ġhttp": 4038,
      "ĠGold": 4039,
      "ĠKore": 4040,
      "iate": 4041,
      "ĠLife": 4042,
      "ĠSing": 4043,
      "Ġstrateg": 4044,
      "Ġaccur": 4045,
      "fort": 4046,
      "Ġmis": 4047,
      "ĠPeter": 4048,
      "Ġindependent": 4049,
      "ocks": 4050,
      "Ġnegative": 4051,
      "entially": 4052,
      "zz": 4053,
      "Ġfriend": 4054,
      "Ġmodels": 4055,
      "Ġrecently": 4056,
      "Ġ1960": 4057,
      "Ġapproximately": 4058,
      "Ġcollege": 4059,
      "Ġbound": 4060,
      "Ġshall": 4061,
      "arian": 4062,
      "resh": 4063,
      "Ġtou": 4064,
      "Ġbelieved": 4065,
      "ĠVirgin": 4066,
      "Ġuseful": 4067,
      "Ġball": 4068,
      "enced": 4069,
      "45": 4070,
      "house": 4071,
      "Ġforeign": 4072,
      "ĠLeg": 4073,
      "ĠVict": 4074,
      "ĠTer": 4075,
      "Ġequipment": 4076,
      "Ġexercise": 4077,
      "Ġimportance": 4078,
      "mark": 4079,
      "IV": 4080,
      "ĠLear": 4081,
      "ĠDi": 4082,
      "Ġanswer": 4083,
      "Ġsouthern": 4084,
      "Ġmunicip": 4085,
      "resp": 4086,
      "It": 4087,
      "Ġleave": 4088,
      "Ġseparate": 4089,
      "Ġship": 4090,
      "Ġrunning": 4091,
      "ĠMass": 4092,
      "Ġconnect": 4093,
      "Ġrul": 4094,
      "Ġ1994": 4095,
      "burg": 4096,
      "enge": 4097,
      "Ġhit": 4098,
      "ĠZeal": 4099,
      "Ġinfection": 4100,
      "Ġattract": 4101,
      "inn": 4102,
      "rical": 4103,
      "term": 4104,
      "ken": 4105,
      "ss": 4106,
      "ĠMag": 4107,
      "ĠLord": 4108,
      "ĠTor": 4109,
      "Ġdivid": 4110,
      "Ġtro": 4111,
      "Ġincor": 4112,
      "Ġjoined": 4113,
      "endment": 4114,
      "Ġdisplay": 4115,
      "Ġcool": 4116,
      "equ": 4117,
      "Ġinform": 4118,
      "iar": 4119,
      "Ġmiles": 4120,
      "apter": 4121,
      "Ġexpect": 4122,
      "Ġbott": 4123,
      "erg": 4124,
      "Ä±": 4125,
      "Ġ*": 4126,
      "olf": 4127,
      "ĠEarly": 4128,
      "ka": 4129,
      "Ġobjects": 4130,
      "IT": 4131,
      "Ġrequires": 4132,
      "uff": 4133,
      "encies": 4134,
      "icated": 4135,
      "ki": 4136,
      "Ġrates": 4137,
      "uted": 4138,
      "Ġminor": 4139,
      "Ġtechniques": 4140,
      "Ġcreating": 4141,
      "ĠItalian": 4142,
      "Ġpassed": 4143,
      "arent": 4144,
      "Ġexpected": 4145,
      "Ġrespond": 4146,
      "Ġelection": 4147,
      "Ġdevices": 4148,
      "ĠZealand": 4149,
      "Ġcru": 4150,
      "ĠTV": 4151,
      "Ġbey": 4152,
      "li": 4153,
      "ibly": 4154,
      "Ġoriginally": 4155,
      "iated": 4156,
      "Ġbul": 4157,
      "Ġbeyond": 4158,
      "edia": 4159,
      "Ġpet": 4160,
      "king": 4161,
      "issions": 4162,
      "Ġteacher": 4163,
      "Ġconv": 4164,
      "Ġunits": 4165,
      "ĠLet": 4166,
      "Ġproviding": 4167,
      "Ġtur": 4168,
      "het": 4169,
      "ĠDirect": 4170,
      "Ġcommand": 4171,
      "ĠDan": 4172,
      "ĠElect": 4173,
      "Ġapplications": 4174,
      "Ġmax": 4175,
      "Ġdevice": 4176,
      "ĠDef": 4177,
      "Ġreached": 4178,
      "196": 4179,
      "Ġelement": 4180,
      "ĠBas": 4181,
      "vant": 4182,
      "ĠSmith": 4183,
      "ĠBritain": 4184,
      "ĠBudd": 4185,
      "rupt": 4186,
      "aling": 4187,
      "ĠHuman": 4188,
      "board": 4189,
      "Ġpresence": 4190,
      "oration": 4191,
      "Ġsolution": 4192,
      "Ġexhib": 4193,
      "ĠLake": 4194,
      "Ġmarried": 4195,
      "Ġcompletely": 4196,
      "uated": 4197,
      "load": 4198,
      "Ġnumerous": 4199,
      "Ġcharacters": 4200,
      "ointed": 4201,
      "rig": 4202,
      "Ġstations": 4203,
      "Ġreceive": 4204,
      "annel": 4205,
      "ait": 4206,
      "Ġrat": 4207,
      "Ġfuel": 4208,
      "____": 4209,
      "Ġreferred": 4210,
      "Ġcommunication": 4211,
      "come": 4212,
      "Ġrain": 4213,
      "ĠKh": 4214,
      "oo": 4215,
      "ĠHenry": 4216,
      "Ġadults": 4217,
      "Ġmolec": 4218,
      "Ġmatch": 4219,
      "EC": 4220,
      "olk": 4221,
      "Ġbecoming": 4222,
      "ĠOut": 4223,
      "Ġreduced": 4224,
      "Ġthinking": 4225,
      "Ġadvant": 4226,
      "road": 4227,
      "book": 4228,
      "gl": 4229,
      "itable": 4230,
      "writ": 4231,
      "Ġegg": 4232,
      "Ġbillion": 4233,
      "Ġprocesses": 4234,
      "Ġdepend": 4235,
      "Ġrepe": 4236,
      "Ġwhom": 4237,
      "Ġcarried": 4238,
      "Ġimag": 4239,
      "Ġpreviously": 4240,
      "ĠFootball": 4241,
      "rong": 4242,
      "ĠMexico": 4243,
      "ev": 4244,
      "Ġdecided": 4245,
      "Ġarm": 4246,
      "cohol": 4247,
      "Ġcosts": 4248,
      "Ġweb": 4249,
      "Ġexamples": 4250,
      "Ġreasons": 4251,
      "Ġur": 4252,
      "ux": 4253,
      "Ġ1992": 4254,
      "Ġidentified": 4255,
      "Ġnoted": 4256,
      "ession": 4257,
      "atform": 4258,
      "ĠMad": 4259,
      "PA": 4260,
      "ĠOp": 4261,
      "agement": 4262,
      "ensity": 4263,
      "ĠCarol": 4264,
      "ĠAsia": 4265,
      "ĠChic": 4266,
      "Ġhyp": 4267,
      "Ġwinter": 4268,
      "Ġcorn": 4269,
      "ĠOrgan": 4270,
      "Ġrelatively": 4271,
      "Ġnothing": 4272,
      "enth": 4273,
      "ĠScot": 4274,
      "Ġeffort": 4275,
      "Ġconsequ": 4276,
      "Ġregions": 4277,
      "Ġstructures": 4278,
      "arter": 4279,
      "ologist": 4280,
      "ĠOnce": 4281,
      "Ġmob": 4282,
      "enty": 4283,
      "owers": 4284,
      "ĠWhy": 4285,
      "Ġsubsequ": 4286,
      "ĠSuper": 4287,
      "Ġcapacity": 4288,
      "ban": 4289,
      "ĠFrank": 4290,
      "Ġdiss": 4291,
      "Ġhol": 4292,
      "ĠUp": 4293,
      "Ġtests": 4294,
      "force": 4295,
      "Ġfamous": 4296,
      "ĠBen": 4297,
      "Ġapplied": 4298,
      "33": 4299,
      "well": 4300,
      "ĠBrown": 4301,
      "ulf": 4302,
      "Ġsustain": 4303,
      "ĠCommission": 4304,
      "Ġstandards": 4305,
      "Ġlived": 4306,
      "Ġbirds": 4307,
      "Ġproperties": 4308,
      "'re": 4309,
      "Ġpeace": 4310,
      "ĠAcademy": 4311,
      "anned": 4312,
      "Ġconstant": 4313,
      "phas": 4314,
      "ĠBest": 4315,
      "Ġmetal": 4316,
      "Ġpractices": 4317,
      "ĠWomen": 4318,
      "iat": 4319,
      "Ġeyes": 4320,
      "ĠRegulations": 4321,
      "za": 4322,
      "Ġstories": 4323,
      "Ġmostly": 4324,
      "Ġenter": 4325,
      "Ġtesting": 4326,
      "Ġdyn": 4327,
      "Ġund": 4328,
      "Ġsettle": 4329,
      "EN": 4330,
      "ĠPet": 4331,
      "anta": 4332,
      "Ġgoes": 4333,
      "Ġscale": 4334,
      "mosp": 4335,
      "Ġfigure": 4336,
      "Ġdirection": 4337,
      "Ġstra": 4338,
      "Ġfully": 4339,
      "unction": 4340,
      "ĠInst": 4341,
      "ĠCivil": 4342,
      "Ġarmy": 4343,
      "edy": 4344,
      "Ġexperien": 4345,
      "Ġheavy": 4346,
      "ado": 4347,
      "Ġexcept": 4348,
      "ault": 4349,
      "Ġinfl": 4350,
      "ota": 4351,
      "Ġcrop": 4352,
      "Ġlegisl": 4353,
      "Ġfear": 4354,
      "rack": 4355,
      "Ġcoming": 4356,
      "tery": 4357,
      "Ġ1993": 4358,
      "Ġoccurs": 4359,
      "Ġcold": 4360,
      "ĠBook": 4361,
      "Ġsports": 4362,
      "ĠRob": 4363,
      "Ġgoals": 4364,
      "Ġ+": 4365,
      "Ġmoving": 4366,
      "Ġvirt": 4367,
      "Ġrise": 4368,
      "bour": 4369,
      "Ġnative": 4370,
      "Ġshape": 4371,
      "ĠThus": 4372,
      "sect": 4373,
      "Ġwaste": 4374,
      "elled": 4375,
      "ĠPlay": 4376,
      "Ġanything": 4377,
      "ĠDevelopment": 4378,
      "Ġdemand": 4379,
      "This": 4380,
      "Ġappropriate": 4381,
      "Ġcelebr": 4382,
      "erate": 4383,
      "ĠHel": 4384,
      "itis": 4385,
      "Ġlanguages": 4386,
      "ped": 4387,
      "Ġsevere": 4388,
      "ias": 4389,
      "ĠIS": 4390,
      "Ġ185": 4391,
      "Ġmachine": 4392,
      "AL": 4393,
      "Ġalone": 4394,
      "Ġcry": 4395,
      "ĠCle": 4396,
      "Ġleader": 4397,
      "Ġded": 4398,
      "uls": 4399,
      "igen": 4400,
      "Ġheav": 4401,
      "Ġrecords": 4402,
      "Ġshowed": 4403,
      "Ġprin": 4404,
      "Ġ31": 4405,
      "ny": 4406,
      "Ġcitizens": 4407,
      "Ġplans": 4408,
      "Ġfair": 4409,
      "met": 4410,
      "Ġdefined": 4411,
      "ED": 4412,
      "Ġtoward": 4413,
      "Ġaffected": 4414,
      "place": 4415,
      "Ġgiving": 4416,
      "Ġrob": 4417,
      "Ġnuclear": 4418,
      "Ġswe": 4419,
      "hi": 4420,
      "ĠNorthern": 4421,
      "azine": 4422,
      "apers": 4423,
      "ĠFam": 4424,
      "Ġannual": 4425,
      "ga": 4426,
      "Ġteams": 4427,
      "ube": 4428,
      "ĠRichard": 4429,
      "Ġdistance": 4430,
      "Ġtim": 4431,
      "ĠBill": 4432,
      "nam": 4433,
      "ĠProfess": 4434,
      "Ġunc": 4435,
      "Ġcompar": 4436,
      "ĠEnvironment": 4437,
      "Ġwear": 4438,
      "wise": 4439,
      "Ġcollabor": 4440,
      "Ġopportunity": 4441,
      "rd": 4442,
      "Ġreplaced": 4443,
      "Ġsac": 4444,
      "Ġbenefit": 4445,
      "ĠIslam": 4446,
      "Ġuser": 4447,
      "Ġpowerful": 4448,
      "Ġpresented": 4449,
      "Ġdifferences": 4450,
      "Ġaircraft": 4451,
      "Ġ|-": 4452,
      "Ġassum": 4453,
      "ographic": 4454,
      "70": 4455,
      "Ġpp": 4456,
      "iant": 4457,
      "Ġbacteria": 4458,
      "Ġfunctions": 4459,
      "Ġcommunic": 4460,
      "ona": 4461,
      "Ġwidely": 4462,
      "ĠUN": 4463,
      "utch": 4464,
      "Ġtrying": 4465,
      "Ġeverything": 4466,
      "acing": 4467,
      "rees": 4468,
      "ĠWork": 4469,
      "win": 4470,
      "Ġurban": 4471,
      "Ġstrugg": 4472,
      "thlet": 4473,
      "Ġorganizations": 4474,
      "Ġprison": 4475,
      "Ġconvers": 4476,
      "Ġestimated": 4477,
      "Ġtool": 4478,
      "ĠGrand": 4479,
      "âĢĿ.": 4480,
      "Ġgrant": 4481,
      "Ġremember": 4482,
      "Ġbelief": 4483,
      "ĠAnn": 4484,
      "Ġvisual": 4485,
      "Ġmaintain": 4486,
      "ĠEmpire": 4487,
      "Ġ1991": 4488,
      "ĠPost": 4489,
      "riage": 4490,
      "icians": 4491,
      "onic": 4492,
      "Ġsugar": 4493,
      "related": 4494,
      "Ġblue": 4495,
      "Ġhope": 4496,
      "OS": 4497,
      "Ġpolice": 4498,
      "ĠPop": 4499,
      "Ġoffers": 4500,
      "Ġspent": 4501,
      "ĠCast": 4502,
      "ĠLatin": 4503,
      "embly": 4504,
      "ef": 4505,
      "yr": 4506,
      "ĠConf": 4507,
      "Ġbelong": 4508,
      "ĠBoth": 4509,
      "ĠRecords": 4510,
      "Ġactions": 4511,
      "Ġmut": 4512,
      "ĠDNA": 4513,
      "Ġturned": 4514,
      "Ġbehavi": 4515,
      "36": 4516,
      "Ġfile": 4517,
      "etball": 4518,
      "ĠUse": 4519,
      "ĠPac": 4520,
      "cles": 4521,
      "Ġusers": 4522,
      "Ġmonitor": 4523,
      "Ġstated": 4524,
      "Ġimmediately": 4525,
      "amples": 4526,
      "Americ": 4527,
      "ĠPlan": 4528,
      "Ġstarting": 4529,
      "Ġletter": 4530,
      "ĠCare": 4531,
      "ype": 4532,
      "Ġinh": 4533,
      "Ġliterature": 4534,
      "ĠKar": 4535,
      "Ġplanet": 4536,
      "ĠMars": 4537,
      "Ġpick": 4538,
      "ĠItaly": 4539,
      "Ġexisting": 4540,
      "90": 4541,
      "lim": 4542,
      "38": 4543,
      "Ġtherapy": 4544,
      "Ġgod": 4545,
      "ĠNA": 4546,
      "ĠNews": 4547,
      "iful": 4548,
      "arts": 4549,
      "Ġweather": 4550,
      "ĠMiddle": 4551,
      "ĠChildren": 4552,
      "48": 4553,
      "Ġchoose": 4554,
      "zil": 4555,
      "ĠMont": 4556,
      "Ġcritic": 4557,
      "Ġteach": 4558,
      "ĠRem": 4559,
      "ishop": 4560,
      "ĠTom": 4561,
      "ĠWell": 4562,
      "Ġforward": 4563,
      "Ġindustrial": 4564,
      "Ġeating": 4565,
      "ĠToday": 4566,
      "see": 4567,
      "overs": 4568,
      "ĠFlorida": 4569,
      "ĠMel": 4570,
      "respond": 4571,
      "Ġfavor": 4572,
      "Ġproposed": 4573,
      "Ġthr": 4574,
      "Ġ80": 4575,
      "Ġdistribution": 4576,
      "rec": 4577,
      "Ġsongs": 4578,
      "ican": 4579,
      "ĠVictor": 4580,
      "Ġmeasures": 4581,
      "iable": 4582,
      "ishing": 4583,
      "Ġinitial": 4584,
      "Ġupp": 4585,
      "Ġload": 4586,
      "ĠCamp": 4587,
      "Ġperhaps": 4588,
      "iest": 4589,
      "ocal": 4590,
      "ĠHam": 4591,
      "Ġequal": 4592,
      "Ġsen": 4593,
      "olved": 4594,
      "Ġserve": 4595,
      "Ġlimit": 4596,
      "clus": 4597,
      "Ġcontext": 4598,
      "Ġchoice": 4599,
      "ĠCD": 4600,
      "Ġfif": 4601,
      "Ġdrugs": 4602,
      "47": 4603,
      "ada": 4604,
      "iring": 4605,
      "ĠMinister": 4606,
      "Ġforced": 4607,
      "ĠLiving": 4608,
      "ĠLand": 4609,
      "Ġrich": 4610,
      "stitution": 4611,
      "ĠCat": 4612,
      "Ġlic": 4613,
      "Ġevolution": 4614,
      "Ġplatform": 4615,
      "CA": 4616,
      "band": 4617,
      "ĠGra": 4618,
      "gest": 4619,
      "ifically": 4620,
      "ĠInternet": 4621,
      "cher": 4622,
      "Ġgun": 4623,
      "Ġsupported": 4624,
      "Ġcam": 4625,
      "ini": 4626,
      "Ġrank": 4627,
      "alle": 4628,
      "39": 4629,
      "Ġmoment": 4630,
      "ĠOb": 4631,
      "Ġreference": 4632,
      "ĠMo": 4633,
      "ĠWrit": 4634,
      "ĠFollow": 4635,
      "Ġpiece": 4636,
      "Ġconducted": 4637,
      "ena": 4638,
      "Ġsuppl": 4639,
      "ĠDisc": 4640,
      "Ġclosed": 4641,
      "ribute": 4642,
      "Ġcovered": 4643,
      "ĠSea": 4644,
      "Ġ2021": 4645,
      "Ġgenetic": 4646,
      "Ġdaughter": 4647,
      "Ġhelped": 4648,
      "Ġsecret": 4649,
      "Ġexposure": 4650,
      "Ġslight": 4651,
      "Ġteeth": 4652,
      "ĠWind": 4653,
      "Ġmainly": 4654,
      "ĠRussia": 4655,
      "cious": 4656,
      "cript": 4657,
      "Ġsigned": 4658,
      "Ġgraph": 4659,
      "Ġguitar": 4660,
      "ĠBet": 4661,
      "iny": 4662,
      "ĠPenn": 4663,
      "37": 4664,
      "rich": 4665,
      "Ġperfect": 4666,
      "ĠChicago": 4667,
      "ĠTown": 4668,
      "idel": 4669,
      "Ġcharg": 4670,
      "Ġeducational": 4671,
      "isher": 4672,
      "ĠRock": 4673,
      "olars": 4674,
      "Ġreports": 4675,
      "nic": 4676,
      "ala": 4677,
      "rane": 4678,
      "Ġatmosp": 4679,
      "ĠFood": 4680,
      "ĠParis": 4681,
      "ĠSom": 4682,
      "Ġresulting": 4683,
      "itan": 4684,
      "Ġstore": 4685,
      "Ġbreat": 4686,
      "Ġdistinct": 4687,
      "Ġpregn": 4688,
      "Ġresistance": 4689,
      "ipl": 4690,
      "Ġcounter": 4691,
      "ĠDen": 4692,
      "ĠWeb": 4693,
      "Ġexperim": 4694,
      "ensus": 4695,
      "Ġcontrast": 4696,
      "Ġfruit": 4697,
      "Ġspect": 4698,
      "Ġconnected": 4699,
      "Ġnote": 4700,
      "Ġwanted": 4701,
      "Ġcreation": 4702,
      "Ġelected": 4703,
      "Ġenh": 4704,
      "Ġmeeting": 4705,
      "ĠPers": 4706,
      "bed": 4707,
      "ributed": 4708,
      "ĠFe": 4709,
      "ĠProject": 4710,
      "Ġspring": 4711,
      "orage": 4712,
      "Ġ35": 4713,
      "tar": 4714,
      "Ġspl": 4715,
      "Ġoffered": 4716,
      "Ġmouth": 4717,
      "Ġeveryone": 4718,
      "Ġhun": 4719,
      "Am": 4720,
      "Ġtrain": 4721,
      "Ġmentioned": 4722,
      "bridge": 4723,
      "Ġrecommend": 4724,
      "Ġwestern": 4725,
      "ĠJoseph": 4726,
      "Ġaim": 4727,
      "grad": 4728,
      "Ġ(\"": 4729,
      "ĠRh": 4730,
      "AM": 4731,
      "Ġsurvey": 4732,
      "hors": 4733,
      "An": 4734,
      "Ġlat": 4735,
      "ola": 4736,
      "aval": 4737,
      "Ġemphas": 4738,
      "CC": 4739,
      "Ġobserved": 4740,
      "estival": 4741,
      "Ġacademic": 4742,
      "ĠInf": 4743,
      "Ġdecades": 4744,
      "Ġdidn": 4745,
      "Ġfrequently": 4746,
      "Ġupper": 4747,
      "ĠMen": 4748,
      "Ġremoved": 4749,
      "Ġpoet": 4750,
      "gu": 4751,
      "lo": 4752,
      "Ġnotes": 4753,
      "roph": 4754,
      "Ġreplace": 4755,
      "ĠSouthern": 4756,
      "Ġsexual": 4757,
      "Ġdiabetes": 4758,
      "Ġsteps": 4759,
      "arrow": 4760,
      "ĠEconom": 4761,
      "ĠBul": 4762,
      "ĠJews": 4763,
      "Ġiron": 4764,
      "ĠMer": 4765,
      "ĠPan": 4766,
      "Ġoperation": 4767,
      "aly": 4768,
      "erved": 4769,
      "ĠMedic": 4770,
      "Ġcomment": 4771,
      "ĠEvery": 4772,
      "Ġfort": 4773,
      "Ġinstance": 4774,
      "Ġfresh": 4775,
      "Ġwriter": 4776,
      "Ġappointed": 4777,
      "Ġleague": 4778,
      "Ġnewsp": 4779,
      "Ġfinally": 4780,
      "Ġworth": 4781,
      "Ġrot": 4782,
      "ĠIrish": 4783,
      "Ġfaith": 4784,
      "oper": 4785,
      "ĠAD": 4786,
      "Ġmur": 4787,
      "195": 4788,
      "ĠOffic": 4789,
      "Ġpartners": 4790,
      "Ġincome": 4791,
      "ĠMill": 4792,
      "add": 4793,
      "Ġincorpor": 4794,
      "Ġdu": 4795,
      "itt": 4796,
      "Ġalternative": 4797,
      "ĠHill": 4798,
      "anguage": 4799,
      "Ġsusp": 4800,
      "Ġcolle": 4801,
      "ructure": 4802,
      "Ġtask": 4803,
      "Ġcoach": 4804,
      "Ġcook": 4805,
      "kins": 4806,
      "ĠBrazil": 4807,
      "Ġphen": 4808,
      "bur": 4809,
      "oral": 4810,
      "Ġmap": 4811,
      "Ġbrief": 4812,
      "Ġalcohol": 4813,
      "Ġdouble": 4814,
      "Ġsurpr": 4815,
      "with": 4816,
      "ĠTest": 4817,
      "ĠCommit": 4818,
      "urance": 4819,
      "Ġ1989": 4820,
      "ocratic": 4821,
      "Ġprice": 4822,
      "ĠVirginia": 4823,
      "col": 4824,
      "ĠSol": 4825,
      "Ġuns": 4826,
      "=\"": 4827,
      "Ġpun": 4828,
      "ĠLos": 4829,
      "aped": 4830,
      "Ġantib": 4831,
      "Ġconver": 4832,
      "Ġprimarily": 4833,
      "ĠGood": 4834,
      "cop": 4835,
      "Ġdoub": 4836,
      "ato": 4837,
      "Ġcorrespond": 4838,
      "ĠOx": 4839,
      "Ġincreases": 4840,
      "ET": 4841,
      "Ġthousands": 4842,
      "ĠIll": 4843,
      "Ġinteresting": 4844,
      "Ġsuggests": 4845,
      "Ġabsor": 4846,
      "ĠMur": 4847,
      "Ġliber": 4848,
      "ishes": 4849,
      "Ġsigns": 4850,
      "ĠJud": 4851,
      "works": 4852,
      "Ġstrength": 4853,
      "Ġinsp": 4854,
      "Ġarrang": 4855,
      "heast": 4856,
      "46": 4857,
      "Ġtox": 4858,
      "Ġphilosoph": 4859,
      "ĠJer": 4860,
      "omin": 4861,
      "Ġburn": 4862,
      "osa": 4863,
      "Ġcomponents": 4864,
      "Ġillustr": 4865,
      "Ġbodies": 4866,
      "à¤": 4867,
      "Ġmaster": 4868,
      "Ġdetails": 4869,
      "imens": 4870,
      "Ġ70": 4871,
      "Ġchief": 4872,
      "ĠMa": 4873,
      "ĠSir": 4874,
      "ĠDespite": 4875,
      "abilities": 4876,
      "Ġintended": 4877,
      "Ġpatterns": 4878,
      "ras": 4879,
      "Ġdespite": 4880,
      "Ġfactor": 4881,
      "pective": 4882,
      "Ġcoup": 4883,
      "Ġfields": 4884,
      "Ġ1950": 4885,
      "Ġsetting": 4886,
      "cers": 4887,
      "ĠColumbia": 4888,
      "Ġillness": 4889,
      "Ġinstruct": 4890,
      "ĠStep": 4891,
      "gery": 4892,
      "Ġstream": 4893,
      "vis": 4894,
      "rehens": 4895,
      "Ġglass": 4896,
      "Ġgeneration": 4897,
      "ii": 4898,
      "urt": 4899,
      "ĠKn": 4900,
      "Ġowners": 4901,
      "ĠLab": 4902,
      "Ġwall": 4903,
      "Ġappearance": 4904,
      "49": 4905,
      "umber": 4906,
      "anda": 4907,
      "osen": 4908,
      "Ġactual": 4909,
      "Ġinstitutions": 4910,
      "\")": 4911,
      "ygen": 4912,
      "Ġintellig": 4913,
      "range": 4914,
      "ita": 4915,
      "Ġwatch": 4916,
      "Ġdat": 4917,
      "ĠStat": 4918,
      "Ġreligion": 4919,
      "ĠGeorg": 4920,
      "Ġpicture": 4921,
      "Ġinnov": 4922,
      "ĠCap": 4923,
      "Ġsand": 4924,
      "itors": 4925,
      "ĠPacific": 4926,
      "ching": 4927,
      "Ġpal": 4928,
      "Ġcharge": 4929,
      "Ġachieve": 4930,
      "Ġinterpret": 4931,
      "rm": 4932,
      "ework": 4933,
      "inder": 4934,
      "Ġdivided": 4935,
      "Ġfle": 4936,
      "Ġbra": 4937,
      "ĠOlympics": 4938,
      "ĠStand": 4939,
      "Ġconclud": 4940,
      "la": 4941,
      "rieved": 4942,
      "Ġprem": 4943,
      "Ġcombined": 4944,
      "iders": 4945,
      "ĠSpain": 4946,
      "ĠLong": 4947,
      "Ġartists": 4948,
      "Ġ90": 4949,
      "Ġlearned": 4950,
      "raction": 4951,
      "ĠBig": 4952,
      "gal": 4953,
      "Ġplanning": 4954,
      "Ġsignificantly": 4955,
      "ĠCommon": 4956,
      "ocol": 4957,
      "ĠMartin": 4958,
      "ĠTim": 4959,
      "Ġgarden": 4960,
      "Ġvary": 4961,
      "Ġ1988": 4962,
      "rum": 4963,
      "Ġsaying": 4964,
      "ressed": 4965,
      "rome": 4966,
      "Ġkill": 4967,
      "ĠSupp": 4968,
      "Ġtrust": 4969,
      "crib": 4970,
      "Ġgain": 4971,
      "Ġlargely": 4972,
      "Ġinsect": 4973,
      "Ġconsists": 4974,
      "Ġscen": 4975,
      "rate": 4976,
      "Ġraised": 4977,
      "down": 4978,
      "Ġvoice": 4979,
      "tters": 4980,
      "ĠExp": 4981,
      "Ġ1986": 4982,
      "EM": 4983,
      "Ġfinished": 4984,
      "Ġyourself": 4985,
      "ĠIII": 4986,
      "PS": 4987,
      "ĠCult": 4988,
      "Ġcombination": 4989,
      "bi": 4990,
      "ockey": 4991,
      "Ġefficient": 4992,
      "Ġcontinues": 4993,
      "Ġgrand": 4994,
      "Ġkid": 4995,
      "Ġdisorder": 4996,
      "Ġprefer": 4997,
      "bal": 4998,
      "Ġroot": 4999,
      "Ġcenturies": 5000,
      "Ġhair": 5001,
      "32": 5002,
      "Ġcompetition": 5003,
      "Ġcopy": 5004,
      "Ġ...": 5005,
      "Ġinterview": 5006,
      "Ġutil": 5007,
      "Ġdirected": 5008,
      "Ġpopulations": 5009,
      "akers": 5010,
      "igration": 5011,
      "Ġleaving": 5012,
      "Ġlisted": 5013,
      "rey": 5014,
      "Ġdoct": 5015,
      "ĠPhys": 5016,
      "Ġextremely": 5017,
      "Ġpil": 5018,
      "emporary": 5019,
      "ship": 5020,
      "ĠMu": 5021,
      "tical": 5022,
      "ĠConst": 5023,
      "Ġdrop": 5024,
      "ĠWood": 5025,
      "Ġitems": 5026,
      "Ġopin": 5027,
      "ĠOlympic": 5028,
      "Â°": 5029,
      "ĠEngine": 5030,
      "ĠFilm": 5031,
      "ĠBir": 5032,
      "Ġcompos": 5033,
      "ĠCop": 5034,
      "Ġdrive": 5035,
      "Ġcausing": 5036,
      "ĠSwed": 5037,
      "Ġenem": 5038,
      "Ġbalance": 5039,
      "erse": 5040,
      "Ġwriters": 5041,
      "Ġkept": 5042,
      "Ġcandid": 5043,
      "ĠCy": 5044,
      "Ġepisode": 5045,
      "ĠBus": 5046,
      "ĠOper": 5047,
      "ancing": 5048,
      "venue": 5049,
      "44": 5050,
      "ĠDu": 5051,
      "ĠForce": 5052,
      "ifying": 5053,
      "igure": 5054,
      "Ġinternal": 5055,
      "Ġselected": 5056,
      "Ġmathemat": 5057,
      "31": 5058,
      "ĠLibrary": 5059,
      "Ġinvent": 5060,
      "Ġbottom": 5061,
      "igan": 5062,
      "standing": 5063,
      "Ġisn": 5064,
      "Ġchance": 5065,
      "ologists": 5066,
      "tr": 5067,
      "ested": 5068,
      "Ġbask": 5069,
      "ieties": 5070,
      "Ġmedicine": 5071,
      "Ġaspects": 5072,
      "va": 5073,
      "Ġcentre": 5074,
      "Ġruns": 5075,
      "Ġbreast": 5076,
      "Ġvision": 5077,
      "ĠEastern": 5078,
      "Ġwrong": 5079,
      "Ġspeech": 5080,
      "Ġdetermined": 5081,
      "Ġconflict": 5082,
      "Ġsquare": 5083,
      "Ġlatter": 5084,
      "Ġvolume": 5085,
      "Ġhop": 5086,
      "aste": 5087,
      "American": 5088,
      "Ġopportunities": 5089,
      "Ġneighbor": 5090,
      "do": 5091,
      "Ġbaby": 5092,
      "Ġconnection": 5093,
      "Ġborder": 5094,
      "ĠTH": 5095,
      "Ġreality": 5096,
      "Ġjoint": 5097,
      "Ġmeant": 5098,
      "Ġ2022": 5099,
      "Ġviolence": 5100,
      "Ġemp": 5101,
      "Ġvess": 5102,
      "icted": 5103,
      "ns": 5104,
      "ĠOl": 5105,
      "ĠStudents": 5106,
      "rier": 5107,
      "Ġanx": 5108,
      "Ġextended": 5109,
      "ĠSil": 5110,
      "othes": 5111,
      "Ġtruth": 5112,
      "ĠFort": 5113,
      "Ġbroadcast": 5114,
      "Ġformation": 5115,
      "Ġclasses": 5116,
      "Ġinjury": 5117,
      "ĠAddition": 5118,
      "Ġstim": 5119,
      "ĠValley": 5120,
      "Ġign": 5121,
      "Ġopening": 5122,
      "75": 5123,
      "Ġfert": 5124,
      "ipped": 5125,
      "Ġchallenge": 5126,
      "anging": 5127,
      "Ġhousehold": 5128,
      "inet": 5129,
      "iox": 5130,
      "Ġcycle": 5131,
      "ĠHaw": 5132,
      "ĠPower": 5133,
      "rete": 5134,
      "rog": 5135,
      "ĠTime": 5136,
      "ĠOh": 5137,
      "Ġliqu": 5138,
      "uty": 5139,
      "Ġeffic": 5140,
      "ĠCommittee": 5141,
      "ping": 5142,
      "Ġnutrit": 5143,
      "DA": 5144,
      "Ġprofessor": 5145,
      "Ġoperating": 5146,
      "Ġfreedom": 5147,
      "ĠTen": 5148,
      "uations": 5149,
      "Ġhomes": 5150,
      "Ġhuge": 5151,
      "ĠLiber": 5152,
      "atre": 5153,
      "Ġended": 5154,
      "Ġoutput": 5155,
      "ĠFour": 5156,
      "Ġgrass": 5157,
      "Ġallowing": 5158,
      "Ġexplain": 5159,
      "Ġnutri": 5160,
      "Ġapply": 5161,
      "Ġtroops": 5162,
      "FL": 5163,
      "Ġroute": 5164,
      "Ġweap": 5165,
      "Ġadvanced": 5166,
      "Ġstudied": 5167,
      "Ġsignal": 5168,
      "Ġfourth": 5169,
      "Ġprepar": 5170,
      "ua": 5171,
      "ani": 5172,
      "stein": 5173,
      "ĠSpace": 5174,
      "Ġrepresented": 5175,
      "Ġtreated": 5176,
      "Ġoccurred": 5177,
      "Ġmanager": 5178,
      "Ġshot": 5179,
      "ĠBuild": 5180,
      "ĠRo": 5181,
      "Ġdro": 5182,
      "rence": 5183,
      "ĠTechnology": 5184,
      "cription": 5185,
      "Ġweak": 5186,
      "Ġdial": 5187,
      "Ġexcess": 5188,
      "ĠMedical": 5189,
      "Ġchallenges": 5190,
      "BS": 5191,
      "ĠFoundation": 5192,
      "sen": 5193,
      "state": 5194,
      "vin": 5195,
      "Ġcoin": 5196,
      "Ġ1985": 5197,
      "ĠFederal": 5198,
      "Ġauthors": 5199,
      "ĠBank": 5200,
      "ĠDet": 5201,
      "Ġbegins": 5202,
      "Ġexperiences": 5203,
      "Ġera": 5204,
      "ĠMem": 5205,
      "itage": 5206,
      "reme": 5207,
      "Ġmotor": 5208,
      "Ġtissue": 5209,
      "ĠLu": 5210,
      "emic": 5211,
      "Ġflood": 5212,
      "Ġengineering": 5213,
      "Ġconsumption": 5214,
      "Ġperman": 5215,
      "Ġexpression": 5216,
      "ĠBow": 5217,
      "Ġexperiment": 5218,
      "âĢĿ,": 5219,
      "ĠBre": 5220,
      "ogle": 5221,
      "ĠEr": 5222,
      "ĠBattle": 5223,
      "Ġbed": 5224,
      "34": 5225,
      "Ġsave": 5226,
      "ĠTop": 5227,
      "Ġyouth": 5228,
      "Ġmuscle": 5229,
      "iced": 5230,
      "no": 5231,
      "Ġsuggested": 5232,
      "99": 5233,
      "ĠRome": 5234,
      "Ġnor": 5235,
      "Ġisol": 5236,
      "Ġhospital": 5237,
      "Ġrequirements": 5238,
      "iverse": 5239,
      "Ġimmune": 5240,
      "ĠPub": 5241,
      "Ġalg": 5242,
      "Ġsolid": 5243,
      "ordin": 5244,
      "ĠTherefore": 5245,
      "Ġreaction": 5246,
      "Ġcore": 5247,
      "ĠSaint": 5248,
      "Ġcomplic": 5249,
      "Ġfindings": 5250,
      "Ġregarding": 5251,
      "ĠLike": 5252,
      "ĠThrough": 5253,
      "Ġfacilities": 5254,
      "Ġsoldiers": 5255,
      "Ġbone": 5256,
      "ĠTimes": 5257,
      "Ġgene": 5258,
      "Ġauthority": 5259,
      "Ġ1979": 5260,
      "war": 5261,
      "ĠTem": 5262,
      "Ġremaining": 5263,
      "Ġ1987": 5264,
      "ĠPerson": 5265,
      "Ġtaught": 5266,
      "ĠÎ": 5267,
      "ady": 5268,
      "Ġcoal": 5269,
      "which": 5270,
      "Ġtechnologies": 5271,
      "78": 5272,
      "Ġstorage": 5273,
      "Ġdivision": 5274,
      "ĠDou": 5275,
      "Ġ1984": 5276,
      "anges": 5277,
      "Ġguide": 5278,
      "Ġmuseum": 5279,
      "ylvan": 5280,
      "US": 5281,
      "Ġlabel": 5282,
      "Ġpolicies": 5283,
      "iday": 5284,
      "Ġfailure": 5285,
      "ĠParliament": 5286,
      "Ġdegrees": 5287,
      "ĠGal": 5288,
      "Ġunf": 5289,
      "heim": 5290,
      "Ġcer": 5291,
      "Ġpurs": 5292,
      "Ġregional": 5293,
      "Ġtechnique": 5294,
      "ipe": 5295,
      "Ġreform": 5296,
      "Ġdecisions": 5297,
      "Ġarticles": 5298,
      "Ġastron": 5299,
      "Ġalbums": 5300,
      "Ġsample": 5301,
      "Ġmel": 5302,
      "ĠMain": 5303,
      "risis": 5304,
      "Ġmo": 5305,
      "Ã¤": 5306,
      "Ġoptions": 5307,
      "ano": 5308,
      "Ġelimin": 5309,
      "ette": 5310,
      "ĠConn": 5311,
      "ystem": 5312,
      "Ġhour": 5313,
      "ittle": 5314,
      "ansion": 5315,
      "Ġheard": 5316,
      "Ġmix": 5317,
      "ĠDutch": 5318,
      "ĠAbout": 5319,
      "Ġsubs": 5320,
      "Ġpoly": 5321,
      "ĠBefore": 5322,
      "iling": 5323,
      "Ġbuy": 5324,
      "ĠST": 5325,
      "ĠCa": 5326,
      "ĠAngeles": 5327,
      "Ġfollows": 5328,
      "oned": 5329,
      "Ġcircum": 5330,
      "Ġfailed": 5331,
      "ĠStar": 5332,
      "Ġformat": 5333,
      "Ġadministr": 5334,
      "kin": 5335,
      "atically": 5336,
      "Ġhouses": 5337,
      "ng": 5338,
      "ĠBab": 5339,
      "Ġplastic": 5340,
      "Ġspot": 5341,
      "ĠId": 5342,
      "ulum": 5343,
      "ĠInformation": 5344,
      "care": 5345,
      "ĠScotland": 5346,
      "ella": 5347,
      "Ġsymbol": 5348,
      "Ġsav": 5349,
      "greg": 5350,
      "ayer": 5351,
      "Ġidentity": 5352,
      "Ġemissions": 5353,
      "inger": 5354,
      "Ġdetect": 5355,
      "Ġstars": 5356,
      "Ġsurrounding": 5357,
      "Ġ()": 5358,
      "Ġtow": 5359,
      "Ġclearly": 5360,
      "ĠSecret": 5361,
      "ixt": 5362,
      "100": 5363,
      "Ġarms": 5364,
      "Ġclaims": 5365,
      "ĠSqu": 5366,
      "Ġchampions": 5367,
      "ĠOffice": 5368,
      "Ġletters": 5369,
      "Ġeastern": 5370,
      "Ġchanging": 5371,
      "Ġfeatured": 5372,
      "Ġupd": 5373,
      "Ġedition": 5374,
      "ĠSpecial": 5375,
      "Ġsuc": 5376,
      "ĠPolit": 5377,
      "Ġcompl": 5378,
      "Ġrefers": 5379,
      "Ġocean": 5380,
      "aud": 5381,
      "Ġscholars": 5382,
      "otic": 5383,
      "Ġmusical": 5384,
      "uration": 5385,
      "ĠBoard": 5386,
      "Ġmessage": 5387,
      "Ġshared": 5388,
      "asks": 5389,
      "Ġwonder": 5390,
      "Ġstone": 5391,
      "Ġattacks": 5392,
      "orough": 5393,
      "95": 5394,
      "ĠHome": 5395,
      "Ġstatement": 5396,
      "ĠScient": 5397,
      "Ġadopted": 5398,
      "ĠRetrieved": 5399,
      "ĠStudies": 5400,
      "Ġoxygen": 5401,
      "Ġpromote": 5402,
      "ĠFollowing": 5403,
      "Ġaid": 5404,
      "ĠNations": 5405,
      "Ġdiscussion": 5406,
      "iform": 5407,
      "Ġresidents": 5408,
      "orter": 5409,
      "cel": 5410,
      "andom": 5411,
      "Ġrecognized": 5412,
      "Ġorganic": 5413,
      "Ġphase": 5414,
      "onds": 5415,
      "Ġwealth": 5416,
      "ĠMah": 5417,
      "Ġcharacteristics": 5418,
      "Ġpages": 5419,
      "icy": 5420,
      "ĠCro": 5421,
      "Ġmal": 5422,
      "ĠPak": 5423,
      "Ġcolumn": 5424,
      "Ġadvantage": 5425,
      "Ġgets": 5426,
      "ĠGames": 5427,
      "ĠCarolina": 5428,
      "Ġtren": 5429,
      "ĠSports": 5430,
      "Ġ45": 5431,
      "lig": 5432,
      "rep": 5433,
      "ĠSar": 5434,
      "isters": 5435,
      "Ġmotion": 5436,
      "Ġmic": 5437,
      "Ġleads": 5438,
      "Ġpolitician": 5439,
      "ĠGall": 5440,
      "Ġrural": 5441,
      "Ġparties": 5442,
      "Ġelev": 5443,
      "Ġclinical": 5444,
      "ĠImp": 5445,
      "ye": 5446,
      "ĠPortug": 5447,
      "Ġfinding": 5448,
      "rovers": 5449,
      "Ġtrial": 5450,
      "Ġtemperatures": 5451,
      "Ġfelt": 5452,
      "Ġmist": 5453,
      "icks": 5454,
      "Ġflight": 5455,
      "Ġparticipants": 5456,
      "RA": 5457,
      "ih": 5458,
      "Ġstrategies": 5459,
      "Ġbridge": 5460,
      "Ġhappen": 5461,
      "Ġnine": 5462,
      "unte": 5463,
      "Ġships": 5464,
      "ĠCr": 5465,
      "Ġexperienced": 5466,
      "Ġroll": 5467,
      "Ġpieces": 5468,
      "Ġlayer": 5469,
      "Ġinstall": 5470,
      "Ġremove": 5471,
      "ĠSym": 5472,
      "Ġreprodu": 5473,
      "Ġportion": 5474,
      "Ġgar": 5475,
      "Ġplays": 5476,
      "pass": 5477,
      "Ġdisorders": 5478,
      "CO": 5479,
      "Ġcogn": 5480,
      "Ġmorning": 5481,
      "Ġfirm": 5482,
      "Ġanyone": 5483,
      "mas": 5484,
      "ĠWild": 5485,
      "ĠAtt": 5486,
      "iled": 5487,
      "Ġdescribe": 5488,
      "Ġuniversity": 5489,
      "Ġ1983": 5490,
      "lease": 5491,
      "Ġdisapp": 5492,
      "Ġwaters": 5493,
      "ding": 5494,
      "Ġdepression": 5495,
      "Ġmilk": 5496,
      "Ġyellow": 5497,
      "Ġadministration": 5498,
      "Ġpromin": 5499,
      "ĠMajor": 5500,
      "rows": 5501,
      "Ġelectricity": 5502,
      "igenous": 5503,
      "ĠReview": 5504,
      "alities": 5505,
      "500": 5506,
      "Ġrecon": 5507,
      "Ġmanaged": 5508,
      "Ġexistence": 5509,
      "ĠMicro": 5510,
      "ums": 5511,
      "Ġdomin": 5512,
      "Ġlinked": 5513,
      "Ġclassroom": 5514,
      "Ġdie": 5515,
      "Ġprinciples": 5516,
      "Ġresource": 5517,
      "Ġtechnical": 5518,
      "Ġvehicle": 5519,
      "Ġartist": 5520,
      "Ġadvance": 5521,
      "Ġrelationships": 5522,
      "Ġtrig": 5523,
      "ylvania": 5524,
      "ĠAlexander": 5525,
      "Ġdoll": 5526,
      "ulating": 5527,
      "Ġdefinition": 5528,
      "ĠPo": 5529,
      "Ġdepending": 5530,
      "ĠUsing": 5531,
      "Ġrecommended": 5532,
      "ĠLater": 5533,
      "ersey": 5534,
      "Ġhear": 5535,
      "ĠJim": 5536,
      "Ġ1982": 5537,
      "icit": 5538,
      "peror": 5539,
      "Ġlaunched": 5540,
      "Ġsector": 5541,
      "iveness": 5542,
      "Ġrelative": 5543,
      "Ã§": 5544,
      "ansas": 5545,
      "een": 5546,
      "apes": 5547,
      "Ġfine": 5548,
      "abil": 5549,
      "ĠBack": 5550,
      "illa": 5551,
      "Ġtransform": 5552,
      "Ġtopic": 5553,
      "ĠForm": 5554,
      "roke": 5555,
      "Ġmarriage": 5556,
      "Ġpeak": 5557,
      "Ġbeautiful": 5558,
      "km": 5559,
      "ĠBible": 5560,
      "ĠSever": 5561,
      "ĠSpe": 5562,
      "Al": 5563,
      "Ġoption": 5564,
      "ĠAC": 5565,
      "ĠYoung": 5566,
      "TV": 5567,
      "Ġcontaining": 5568,
      "ĠFamily": 5569,
      "ulty": 5570,
      "Ġeasier": 5571,
      "isco": 5572,
      "Ġinput": 5573,
      "Ġofficials": 5574,
      "Ġpric": 5575,
      "Ġfell": 5576,
      "Ġconcerns": 5577,
      "Ġimproved": 5578,
      "part": 5579,
      "Ġaccepted": 5580,
      "Ġterritory": 5581,
      "ĠUSA": 5582,
      "eline": 5583,
      "Ġthick": 5584,
      "Ġdangerous": 5585,
      "ategy": 5586,
      "ĠOrig": 5587,
      "ĠCross": 5588,
      "overty": 5589,
      "ĠVer": 5590,
      "Ġrough": 5591,
      "Ġapparent": 5592,
      "Ġstraight": 5593,
      "oston": 5594,
      "Ġbackground": 5595,
      "ĠThree": 5596,
      "ora": 5597,
      "Ġinvolves": 5598,
      "Ġentered": 5599,
      "Ġtried": 5600,
      "Ġprepared": 5601,
      "Ġready": 5602,
      "ava": 5603,
      "Ġeffectively": 5604,
      "Ġgender": 5605,
      "Ġconsult": 5606,
      "Ġstrategy": 5607,
      "Ġspecifically": 5608,
      "SI": 5609,
      "65": 5610,
      "hist": 5611,
      "Ġpurposes": 5612,
      "gment": 5613,
      "Ġonto": 5614,
      "Ġgirls": 5615,
      "ager": 5616,
      "Ġcert": 5617,
      "Ġtom": 5618,
      "Ġmedal": 5619,
      "ĠViet": 5620,
      "aria": 5621,
      "Ġflag": 5622,
      "ĠRailway": 5623,
      "ura": 5624,
      "ĠWinter": 5625,
      "Ġdomestic": 5626,
      "Ġarrest": 5627,
      "BA": 5628,
      "ĠRights": 5629,
      "Ġmountain": 5630,
      "itness": 5631,
      "going": 5632,
      "Ġslightly": 5633,
      "Ġinterested": 5634,
      "Ġprint": 5635,
      "Ġamb": 5636,
      "Ġvul": 5637,
      "ĠConstitution": 5638,
      "ĠLabor": 5639,
      "Ġ1981": 5640,
      "Ġvent": 5641,
      "ĠDar": 5642,
      "Ġradiation": 5643,
      "Ġfocused": 5644,
      "Ġ1976": 5645,
      "stone": 5646,
      "ĠEnergy": 5647,
      "Ġagricultural": 5648,
      "imb": 5649,
      "Ġcars": 5650,
      "Ġphenomen": 5651,
      "Ġmeat": 5652,
      "Ġdistingu": 5653,
      "Ġprofession": 5654,
      "Ġconservation": 5655,
      "Ġrevolution": 5656,
      "omic": 5657,
      "Ġfrequency": 5658,
      "Ġclaimed": 5659,
      "Ġcollected": 5660,
      "asure": 5661,
      "under": 5662,
      "Ġgreatest": 5663,
      "ĠNASA": 5664,
      "Ġfloor": 5665,
      "ĠCoast": 5666,
      "ĠArts": 5667,
      "Ġprocessing": 5668,
      "ĠChampionship": 5669,
      "thes": 5670,
      "eria": 5671,
      "ĠJack": 5672,
      "Ġheight": 5673,
      "ails": 5674,
      "Ġstorm": 5675,
      "Ġsets": 5676,
      "umni": 5677,
      "RI": 5678,
      "Ġcomprehens": 5679,
      "Ġvitamin": 5680,
      "Ġsort": 5681,
      "ĠJul": 5682,
      "Ġpaint": 5683,
      "Ġleadership": 5684,
      "Ġagreement": 5685,
      "Ġexactly": 5686,
      "Ġbud": 5687,
      "Ġpros": 5688,
      "ĠClin": 5689,
      "ĠColor": 5690,
      "Ġmurder": 5691,
      "Ġsides": 5692,
      "Ġreducing": 5693,
      "ĠWall": 5694,
      "Ġmanner": 5695,
      "Ġdram": 5696,
      "ĠAwards": 5697,
      "Ġtun": 5698,
      "ears": 5699,
      "ĠColl": 5700,
      "ĠMcC": 5701,
      "Ġowned": 5702,
      "Ġawarded": 5703,
      "umin": 5704,
      "ogue": 5705,
      "Ġmaximum": 5706,
      "Ġaccomp": 5707,
      "Ġfoss": 5708,
      "RE": 5709,
      "ricts": 5710,
      "Ġalter": 5711,
      "ĠDev": 5712,
      "Ġbow": 5713,
      "car": 5714,
      "Ġ1930": 5715,
      "lers": 5716,
      "43": 5717,
      "ĠQueen": 5718,
      "Ġran": 5719,
      "adel": 5720,
      "ĠEdward": 5721,
      "ĠWales": 5722,
      "Ġunderst": 5723,
      "Ġexcell": 5724,
      "amental": 5725,
      "ounger": 5726,
      "ĠEp": 5727,
      "Ġsurgery": 5728,
      "Ġkil": 5729,
      "Ġsecondary": 5730,
      "ĠScottish": 5731,
      "Ġassessment": 5732,
      "42": 5733,
      "reek": 5734,
      "Ġchronic": 5735,
      "Ġsomew": 5736,
      "Ġdogs": 5737,
      "Ġfeeling": 5738,
      "ĠUr": 5739,
      "ĠSong": 5740,
      "ĠAst": 5741,
      "agon": 5742,
      "ĠMid": 5743,
      "Ġconcentr": 5744,
      "41": 5745,
      "Ġsufficient": 5746,
      "throp": 5747,
      "othing": 5748,
      "gent": 5749,
      "Ġexchange": 5750,
      "Ġrevealed": 5751,
      "oli": 5752,
      "Ġseed": 5753,
      "ĠMedicine": 5754,
      "Ġpredict": 5755,
      "Ġsnow": 5756,
      "Ġrein": 5757,
      "Ġven": 5758,
      "iana": 5759,
      "icon": 5760,
      "osystem": 5761,
      "ĠPakistan": 5762,
      "Ġsolutions": 5763,
      "Ġwa": 5764,
      "Ġexpert": 5765,
      "teen": 5766,
      "Ġcredit": 5767,
      "Ġrailway": 5768,
      "Ġreject": 5769,
      "Ġgenes": 5770,
      "Ġbasketball": 5771,
      "ĠLee": 5772,
      "ĠDesign": 5773,
      "bra": 5774,
      "Ġpaid": 5775,
      "Ġbill": 5776,
      "istered": 5777,
      "ĠVis": 5778,
      "ĠPenns": 5779,
      "Ġfootballer": 5780,
      "Ġindicate": 5781,
      "ĠIran": 5782,
      "05": 5783,
      "Ġunion": 5784,
      "Ġtraffic": 5785,
      "Ġpersons": 5786,
      "Ġtypical": 5787,
      "Ġexposed": 5788,
      "ĠJac": 5789,
      "Ġclosely": 5790,
      "Ġvehicles": 5791,
      "lick": 5792,
      "Ġdebut": 5793,
      "Ġcontrolled": 5794,
      "omer": 5795,
      "ST": 5796,
      "ĠOnly": 5797,
      "Ġ1972": 5798,
      "Ġmarked": 5799,
      "Ġdestroyed": 5800,
      "Ġeggs": 5801,
      "Ġhus": 5802,
      "ĠCard": 5803,
      "Ġseek": 5804,
      "Ġrenew": 5805,
      "uses": 5806,
      "luding": 5807,
      "Ġdedicated": 5808,
      "Ġ500": 5809,
      "Ġrisks": 5810,
      "Ġtal": 5811,
      "Ġtele": 5812,
      "Ġped": 5813,
      "ĠBoston": 5814,
      "ĠUl": 5815,
      "ĠIra": 5816,
      "RO": 5817,
      "Ġshowing": 5818,
      "Ġhelping": 5819,
      "ĠRevolution": 5820,
      "ĠSund": 5821,
      "Ġprogramming": 5822,
      "01": 5823,
      "ses": 5824,
      "Ġcorpor": 5825,
      "Ġnearby": 5826,
      "ĠCarl": 5827,
      "ht": 5828,
      "Ġ1978": 5829,
      "ĠProfessor": 5830,
      "Ġissued": 5831,
      "Ġban": 5832,
      "Ġconvent": 5833,
      "enses": 5834,
      "ĠRadio": 5835,
      "Ġinitially": 5836,
      "Ġnations": 5837,
      "ĠOxford": 5838,
      "Ġnarrow": 5839,
      "ĠBob": 5840,
      "oking": 5841,
      "Ġgrade": 5842,
      "Ġfigures": 5843,
      "Ġnit": 5844,
      "adium": 5845,
      "Ġflat": 5846,
      "Ġcrew": 5847,
      "ĠForest": 5848,
      "Ġiniti": 5849,
      "What": 5850,
      "agues": 5851,
      "ĠLove": 5852,
      "uing": 5853,
      "ĠJun": 5854,
      "ilit": 5855,
      "ĠJersey": 5856,
      "Ġobtained": 5857,
      "rics": 5858,
      "abase": 5859,
      "Ġamounts": 5860,
      "Ġarrived": 5861,
      "ĠSuch": 5862,
      "Un": 5863,
      "riculum": 5864,
      "ĠPen": 5865,
      "Ġtrou": 5866,
      "Ġcouple": 5867,
      "zer": 5868,
      "ĠNavy": 5869,
      "Ġneut": 5870,
      "ĠJeff": 5871,
      "Ġadjust": 5872,
      "Ġformal": 5873,
      "pan": 5874,
      "Ġotherwise": 5875,
      "Ġsubstant": 5876,
      "Ġtwice": 5877,
      "Ġ1975": 5878,
      "Ġderived": 5879,
      "Ġvote": 5880,
      "ighter": 5881,
      "ĠPennsylvania": 5882,
      "Ġfarmers": 5883,
      "Ġ1940": 5884,
      "ograp": 5885,
      "Ġmort": 5886,
      "FA": 5887,
      "clusion": 5888,
      "bury": 5889,
      "ĠMot": 5890,
      "osm": 5891,
      "Ġconstitution": 5892,
      "Ġcounty": 5893,
      "Ġseat": 5894,
      "ads": 5895,
      "Ġrelevant": 5896,
      "ĠâĢ¦": 5897,
      "ĠGet": 5898,
      "ĠEnd": 5899,
      "Ġserving": 5900,
      "Ġsin": 5901,
      "ĠHon": 5902,
      "aska": 5903,
      "ĠTreaties": 5904,
      "fe": 5905,
      "Ġessay": 5906,
      "Ġconstructed": 5907,
      "Ġestablishments": 5908,
      "Ġunknown": 5909,
      "inity": 5910,
      "ĠTurkey": 5911,
      "Ġresponsibility": 5912,
      "Ġcomposed": 5913,
      "Ġmagazine": 5914,
      "Ġatmosphere": 5915,
      "ĠBal": 5916,
      "Ar": 5917,
      "ĠAmong": 5918,
      "rastructure": 5919,
      "wing": 5920,
      "oster": 5921,
      "Ġobvious": 5922,
      "ĠBlue": 5923,
      "ĠWhe": 5924,
      "Ġgoods": 5925,
      "racy": 5926,
      "Ġextensive": 5927,
      "Ġattend": 5928,
      "Ġwalls": 5929,
      "ĠGre": 5930,
      "Ġpul": 5931,
      "ĠData": 5932,
      "Ġpollution": 5933,
      "Ġmanage": 5934,
      "Ġextent": 5935,
      "Ġelectrical": 5936,
      "Ġanxiety": 5937,
      "Ġresulted": 5938,
      "Ġparticles": 5939,
      "Ġancest": 5940,
      "allel": 5941,
      "Ġincreasingly": 5942,
      "ione": 5943,
      "osaur": 5944,
      "ĠJo": 5945,
      "ĠFree": 5946,
      "ĠInstead": 5947,
      "Ġtooth": 5948,
      "ca": 5949,
      "resents": 5950,
      "Ġcommission": 5951,
      "ĠSup": 5952,
      "Ġscript": 5953,
      "Ġadvoc": 5954,
      "Ġstock": 5955,
      "Ġ1920": 5956,
      "lets": 5957,
      "Ġliquid": 5958,
      "ĠNaz": 5959,
      "Ġ1974": 5960,
      "ĠExt": 5961,
      "hire": 5962,
      "ĠMos": 5963,
      "rolog": 5964,
      "Ġproperly": 5965,
      "Ġextreme": 5966,
      "Ġsinger": 5967,
      "Ġhappens": 5968,
      "Ġlov": 5969,
      "TS": 5970,
      "Ġmixed": 5971,
      "Ġdepart": 5972,
      "Ġtum": 5973,
      "asty": 5974,
      "Ġcontrovers": 5975,
      "ifications": 5976,
      "Ġconcepts": 5977,
      "ĠCentre": 5978,
      "Ġviews": 5979,
      "Ġpra": 5980,
      "ĠJohnson": 5981,
      "Ġspiritual": 5982,
      "Ġgrew": 5983,
      "ĠHor": 5984,
      "onia": 5985,
      "Ġnom": 5986,
      "eters": 5987,
      "ĠAny": 5988,
      "ĠManagement": 5989,
      "ellect": 5990,
      "ĠKent": 5991,
      "'ll": 5992,
      "ossible": 5993,
      "ĠDec": 5994,
      "wan": 5995,
      "ĠSeries": 5996,
      "ĠServices": 5997,
      "ĠHIV": 5998,
      "ĠCorn": 5999,
      "active": 6000,
      "etts": 6001,
      "ortunately": 6002,
      "Ġproport": 6003,
      "Ġsubjects": 6004,
      "mir": 6005,
      "Ġintroduction": 6006,
      "Ġsed": 6007,
      "Ġprotected": 6008,
      "Ġtouch": 6009,
      "eg": 6010,
      "AP": 6011,
      "ĠMichigan": 6012,
      "AD": 6013,
      "MS": 6014,
      "ĠDig": 6015,
      "Ġshar": 6016,
      "ĠHa": 6017,
      "aya": 6018,
      "Ġvictory": 6019,
      "Ġscore": 6020,
      "Ġassociation": 6021,
      "Ġovers": 6022,
      "ĠBase": 6023,
      "Ġachieved": 6024,
      "rons": 6025,
      "aser": 6026,
      "arters": 6027,
      "Ġpret": 6028,
      "cell": 6029,
      "Ġreduction": 6030,
      "Ġofficers": 6031,
      "Ġlibrary": 6032,
      "Ġdocuments": 6033,
      "Ġmanufactur": 6034,
      "yt": 6035,
      "85": 6036,
      "ĠMov": 6037,
      "Ġ1977": 6038,
      "Ġethnic": 6039,
      "Ġcalls": 6040,
      "Ġ)": 6041,
      "ĠCub": 6042,
      "ooth": 6043,
      "ĠThough": 6044,
      "uable": 6045,
      "ĠWho": 6046,
      "EL": 6047,
      "Ġpossibly": 6048,
      "oted": 6049,
      "Ġrepresents": 6050,
      "ĠEth": 6051,
      "Ġdefeated": 6052,
      "ĠIslands": 6053,
      "Ġinterests": 6054,
      "stream": 6055,
      "ashion": 6056,
      "Ġwet": 6057,
      "oto": 6058,
      "Ġvast": 6059,
      "chers": 6060,
      "Ġnarr": 6061,
      "Ġschem": 6062,
      "Ġbranch": 6063,
      "Ġpractical": 6064,
      "uan": 6065,
      "Ġbird": 6066,
      "ĠAdminist": 6067,
      "Ġactor": 6068,
      "Ġpossess": 6069,
      "Ġfram": 6070,
      "Ġlung": 6071,
      "Ġdynam": 6072,
      "ĠGeorgia": 6073,
      "ĠDown": 6074,
      "Ġpit": 6075,
      "ĠControl": 6076,
      "Ġconfir": 6077,
      "ivation": 6078,
      "Ġcomfort": 6079,
      "Ġemotional": 6080,
      "Ġlies": 6081,
      "Ġequival": 6082,
      "ĠTri": 6083,
      "Ġsilver": 6084,
      "ĠLim": 6085,
      "ĠCommunity": 6086,
      "Ġdiam": 6087,
      "ĠFrancisco": 6088,
      "Ġdescribes": 6089,
      "Ġ1969": 6090,
      "Ġvalid": 6091,
      "Ġnotice": 6092,
      "ctic": 6093,
      "Ġemployees": 6094,
      "ĠSaf": 6095,
      "Ġsynd": 6096,
      "Ġexpand": 6097,
      "Ġorganized": 6098,
      "Ġsamples": 6099,
      "Ġcrisis": 6100,
      "ĠKorea": 6101,
      "ĠWay": 6102,
      "Ġinfections": 6103,
      "Ġshoot": 6104,
      "Ġfunding": 6105,
      "Ġseeds": 6106,
      "azz": 6107,
      "Ġideal": 6108,
      "gers": 6109,
      "Ġ32": 6110,
      "ĠNotes": 6111,
      "ela": 6112,
      "Ġexternal": 6113,
      "Ġ1968": 6114,
      "Ġsatis": 6115,
      "Ġhorse": 6116,
      "Ġvulner": 6117,
      "Ġsan": 6118,
      "Ġax": 6119,
      "Ġexperts": 6120,
      "obe": 6121,
      "Ġexplan": 6122,
      "ĠOhio": 6123,
      "har": 6124,
      "nce": 6125,
      "Ġ1945": 6126,
      "ĠCre": 6127,
      "Ġgovernments": 6128,
      "ĠEnvironmental": 6129,
      "inson": 6130,
      "ati": 6131,
      "Ġ36": 6132,
      "ĠExpl": 6133,
      "Ġentirely": 6134,
      "ĠLittle": 6135,
      "06": 6136,
      "Ġscene": 6137,
      "Ġarchitecture": 6138,
      "Ġfighting": 6139,
      "Ġprocedure": 6140,
      "55": 6141,
      "ĠChief": 6142,
      "Ġhearing": 6143,
      "Ġmedium": 6144,
      "Ġauthorities": 6145,
      "ĠWal": 6146,
      "ĠAN": 6147,
      "Ġbiological": 6148,
      "Ġsenior": 6149,
      "ceeded": 6150,
      "ĠPsych": 6151,
      "Ġ1973": 6152,
      "kes": 6153,
      "Ġbright": 6154,
      "gian": 6155,
      "Ġmovements": 6156,
      "'ve": 6157,
      "Ġhappened": 6158,
      "Ġagreed": 6159,
      "ĠHy": 6160,
      "Ġexplained": 6161,
      "eless": 6162,
      "Ġexplore": 6163,
      "Ã³n": 6164,
      "Åį": 6165,
      "Ġexpressed": 6166,
      "idelines": 6167,
      "Ġalign": 6168,
      "Ġsend": 6169,
      "ourney": 6170,
      "Ġpowers": 6171,
      "Ġproducer": 6172,
      "ompl": 6173,
      "Ġworldwide": 6174,
      "oir": 6175,
      "88": 6176,
      "ugby": 6177,
      "idden": 6178,
      "Ġwinning": 6179,
      "ĠAri": 6180,
      "Ġcra": 6181,
      "Ġlooks": 6182,
      "Ġaudience": 6183,
      "zen": 6184,
      "Ġjobs": 6185,
      "Ġesc": 6186,
      "aka": 6187,
      "Ġacts": 6188,
      "mond": 6189,
      "ĠÐ": 6190,
      "Ġdetailed": 6191,
      "Ġemergency": 6192,
      "ĠDirector": 6193,
      "Ġstret": 6194,
      "aturally": 6195,
      "Ġperiods": 6196,
      "ĠOtt": 6197,
      "zing": 6198,
      "Ġminimum": 6199,
      "Amendment": 6200,
      "Ġquarter": 6201,
      "pper": 6202,
      "ĠSand": 6203,
      "ĠAsian": 6204,
      "ĠOpen": 6205,
      "Ġlocations": 6206,
      "ĠConference": 6207,
      "Ġcomponent": 6208,
      "ĠEst": 6209,
      "inding": 6210,
      "Ġfundamental": 6211,
      "osal": 6212,
      "Ġhundreds": 6213,
      "ĠIraq": 6214,
      "abeth": 6215,
      "ĠSecurity": 6216,
      "Ġhabitat": 6217,
      "Ġsell": 6218,
      "Ġ1971": 6219,
      "achus": 6220,
      "Ġsalt": 6221,
      "Ġflowers": 6222,
      "stra": 6223,
      "Ġchannel": 6224,
      "Ġeditor": 6225,
      "Ġproducing": 6226,
      "unch": 6227,
      "ĠSummer": 6228,
      "Ġinflamm": 6229,
      "Ġdrinking": 6230,
      "ĠHead": 6231,
      "Ġplease": 6232,
      "ificial": 6233,
      "Ġinvestment": 6234,
      "Ġyounger": 6235,
      "iano": 6236,
      "Ġacquired": 6237,
      "Ġfluid": 6238,
      "Ġencourage": 6239,
      "Ġplanned": 6240,
      "class": 6241,
      "ĠJustice": 6242,
      "Ġflex": 6243,
      "hester": 6244,
      "Ġtells": 6245,
      "ĠVen": 6246,
      "ĠModern": 6247,
      "perial": 6248,
      "ĠLast": 6249,
      "ĠThose": 6250,
      "oln": 6251,
      "ournament": 6252,
      "ĠMake": 6253,
      "Ġclick": 6254,
      "Ġsteel": 6255,
      "awa": 6256,
      "ĠFact": 6257,
      "rid": 6258,
      "Ġvegetables": 6259,
      "Ġpartner": 6260,
      "comes": 6261,
      "Ġhonor": 6262,
      "igrants": 6263,
      "Ġrapidly": 6264,
      "comm": 6265,
      "awn": 6266,
      "zym": 6267,
      "Ġrandom": 6268,
      "Ġwithd": 6269,
      "Ġpasseng": 6270,
      "ĠAtlantic": 6271,
      "Ġexpansion": 6272,
      "Ġtoxic": 6273,
      "ĠBang": 6274,
      "ĠSciences": 6275,
      "Ġvisible": 6276,
      "Ġconcentration": 6277,
      "Ġhyper": 6278,
      "Ġapart": 6279,
      "ĠHoly": 6280,
      "Ġhttps": 6281,
      "ba": 6282,
      "organ": 6283,
      "Ġoccasion": 6284,
      "Ġpoverty": 6285,
      "ĠAS": 6286,
      "Ġofficer": 6287,
      "ulpt": 6288,
      "Ġawareness": 6289,
      "Ġkinds": 6290,
      "athe": 6291,
      "Ġjustice": 6292,
      "ĠAk": 6293,
      "Ġadding": 6294,
      "LA": 6295,
      "Ġseasons": 6296,
      "ĠStr": 6297,
      "Ġagriculture": 6298,
      "cycl": 6299,
      "ĠGlobal": 6300,
      "Ġmir": 6301,
      "76": 6302,
      "erves": 6303,
      "Ġ1964": 6304,
      "ĠLearning": 6305,
      "Ġassign": 6306,
      "iary": 6307,
      "ĠRom": 6308,
      "ĠGar": 6309,
      "Ġmeasured": 6310,
      "ĠNatural": 6311,
      "ĠTour": 6312,
      "incial": 6313,
      "osite": 6314,
      "Ġchosen": 6315,
      "ĠStan": 6316,
      "Ġsounds": 6317,
      "Ġaccompl": 6318,
      "ĠBooks": 6319,
      "Ġsituations": 6320,
      "ĠHu": 6321,
      "Ġ300": 6322,
      "Ġregularly": 6323,
      "cient": 6324,
      "Ġchemicals": 6325,
      "ĠTre": 6326,
      "Ġstreet": 6327,
      "lishing": 6328,
      "Ġadvice": 6329,
      "ĠPhilipp": 6330,
      "Ġunable": 6331,
      "Ġgrown": 6332,
      "Ġdiscovery": 6333,
      "sk": 6334,
      "Ġlose": 6335,
      "Ġkeeping": 6336,
      "Ġchain": 6337,
      "Ġwel": 6338,
      "ĠCurrent": 6339,
      "bu": 6340,
      "Ġpositions": 6341,
      "ĠKen": 6342,
      "Ġabuse": 6343,
      "ĠReport": 6344,
      "Ġdeclared": 6345,
      "Ġpermanent": 6346,
      "orith": 6347,
      "Ġindependence": 6348,
      "Ġcapable": 6349,
      "Ġrespectively": 6350,
      "ĠNetwork": 6351,
      "DF": 6352,
      "ĠNorm": 6353,
      "Ġefficiency": 6354,
      "Ġfaster": 6355,
      "ĠWin": 6356,
      "avig": 6357,
      "ĠIndust": 6358,
      "long": 6359,
      "ali": 6360,
      "ĠMax": 6361,
      "Ġinstruction": 6362,
      "Ġcontemporary": 6363,
      "ĠProvince": 6364,
      "Ġtowns": 6365,
      "Ġsport": 6366,
      "Ġexplains": 6367,
      "Ġknew": 6368,
      "hol": 6369,
      "Ġtherm": 6370,
      "aks": 6371,
      "Ġthin": 6372,
      "Ġdepartment": 6373,
      "Ġintelligence": 6374,
      "Ġsettlement": 6375,
      "ĠLight": 6376,
      "ĠGoogle": 6377,
      "Ġbrown": 6378,
      "86": 6379,
      "Ġdepos": 6380,
      "Ġsustainable": 6381,
      "ĠDie": 6382,
      "Ġpolitics": 6383,
      "Ġplate": 6384,
      "ĠAssembly": 6385,
      "Ġconsequences": 6386,
      "ĠAuthor": 6387,
      "Ġends": 6388,
      "ĠNon": 6389,
      "ĠNote": 6390,
      "uter": 6391,
      "Ġcontribute": 6392,
      "adelph": 6393,
      "Ġbusinesses": 6394,
      "orph": 6395,
      "eper": 6396,
      "ĠKenn": 6397,
      "Ġconcerned": 6398,
      "Ġordered": 6399,
      "ĠBern": 6400,
      "Ġcup": 6401,
      "ĠHot": 6402,
      "Ġlooked": 6403,
      "ĠNature": 6404,
      "Ġdiagnosis": 6405,
      "Ġod": 6406,
      "Ġphr": 6407,
      "Ġsimpl": 6408,
      "Ġdin": 6409,
      "ĠVan": 6410,
      "Ġroles": 6411,
      "ceived": 6412,
      "Ġmobile": 6413,
      "ropical": 6414,
      "ĠCharl": 6415,
      "Ġhero": 6416,
      "Ġexcellent": 6417,
      "Ġoperated": 6418,
      "Ġelectronic": 6419,
      "Ġmulti": 6420,
      "rine": 6421,
      "ĠPC": 6422,
      "Ġproteins": 6423,
      "ĠAge": 6424,
      "ĠWhere": 6425,
      "tenance": 6426,
      "vements": 6427,
      "Ġlin": 6428,
      "ĠOcean": 6429,
      "áĥ": 6430,
      "Ġbeat": 6431,
      "umes": 6432,
      "Ġsatell": 6433,
      "Ġcouncil": 6434,
      "Ġcrops": 6435,
      "Ġblog": 6436,
      "Ġsplit": 6437,
      "achusetts": 6438,
      "07": 6439,
      "Ġathlet": 6440,
      "Ġhorm": 6441,
      "Ġultimately": 6442,
      "Ġapproaches": 6443,
      "Ġphilosophy": 6444,
      "fit": 6445,
      "etime": 6446,
      "Ġ1967": 6447,
      "Ġhusband": 6448,
      "New": 6449,
      "Ġmissing": 6450,
      "Ġrepeated": 6451,
      "Ġcircumst": 6452,
      "Ġecosystem": 6453,
      "Ġbear": 6454,
      "ache": 6455,
      "ĠCambridge": 6456,
      "Ġchart": 6457,
      "ĠRout": 6458,
      "adelphia": 6459,
      "Ġstem": 6460,
      "inations": 6461,
      "Ġactress": 6462,
      "Ġaband": 6463,
      "Ġpair": 6464,
      "Ġfal": 6465,
      "uts": 6466,
      "Ġprovince": 6467,
      "Ġnewspaper": 6468,
      "Ġprinciple": 6469,
      "Ġselection": 6470,
      "Ġroots": 6471,
      "Ġgall": 6472,
      "Ġrestrict": 6473,
      "itud": 6474,
      "lines": 6475,
      "ĠChem": 6476,
      "Ġring": 6477,
      "Ġedge": 6478,
      "Ġliver": 6479,
      "Ġtransition": 6480,
      "ĠAndrew": 6481,
      "Ġperspective": 6482,
      "Ġmovie": 6483,
      "pping": 6484,
      "alysis": 6485,
      "Ġrecording": 6486,
      "Ġsuffering": 6487,
      "Ġsoul": 6488,
      "ĠDun": 6489,
      "Ġwave": 6490,
      "Ġfamiliar": 6491,
      "Ġfixed": 6492,
      "Ġattended": 6493,
      "onn": 6494,
      "arant": 6495,
      "Ġfacts": 6496,
      "OT": 6497,
      "iac": 6498,
      "Ġphone": 6499,
      "ĠBib": 6500,
      "Ġcertainly": 6501,
      "burgh": 6502,
      "yal": 6503,
      "ĠBroad": 6504,
      "Ġspok": 6505,
      "ĠÂ£": 6506,
      "Ġmoral": 6507,
      "Ġinstitution": 6508,
      "Ġsequence": 6509,
      "ĠSeveral": 6510,
      "DP": 6511,
      "Ġtail": 6512,
      "incoln": 6513,
      "Ġdriving": 6514,
      "ĠSat": 6515,
      "fall": 6516,
      "Ġtasks": 6517,
      "ags": 6518,
      "Ġcontained": 6519,
      "Ġspend": 6520,
      "Ġmetab": 6521,
      "Ġislands": 6522,
      "ĠSupreme": 6523,
      "Ġparent": 6524,
      "align": 6525,
      "Ġcart": 6526,
      "Ġparam": 6527,
      "Ġing": 6528,
      "Ġzone": 6529,
      "Ġholds": 6530,
      "Ġvolunte": 6531,
      "ucky": 6532,
      "Ġprices": 6533,
      "level": 6534,
      "Ġinfrastructure": 6535,
      "Ġnormally": 6536,
      "rin": 6537,
      "yer": 6538,
      "Ġshop": 6539,
      "Ġshel": 6540,
      "Ġinstrument": 6541,
      "Ġopinion": 6542,
      "Ġpure": 6543,
      "ĠDeath": 6544,
      "Ġsuccessfully": 6545,
      "oz": 6546,
      "Ġ<": 6547,
      "Ġeld": 6548,
      "ĠDise": 6549,
      "Ġversions": 6550,
      "Ġrefuge": 6551,
      "ocracy": 6552,
      "09": 6553,
      "rot": 6554,
      "ĠMassachusetts": 6555,
      "Ġargument": 6556,
      "duction": 6557,
      "Ġcerem": 6558,
      "Ġaccounts": 6559,
      "Ġpotentially": 6560,
      "Ġdecade": 6561,
      "Ġparallel": 6562,
      "Ġdescription": 6563,
      "Ġ1965": 6564,
      "ackson": 6565,
      "Ġdiscussed": 6566,
      "ĠBerlin": 6567,
      "Ġnob": 6568,
      "Ġboy": 6569,
      "ĠOs": 6570,
      "Ġsupporting": 6571,
      "ĠYet": 6572,
      "Ġcrime": 6573,
      "IA": 6574,
      "mm": 6575,
      "08": 6576,
      "Ġprominent": 6577,
      "Ġsister": 6578,
      "erals": 6579,
      "Ã¨": 6580,
      "irty": 6581,
      "Ġmath": 6582,
      "Ġmarine": 6583,
      "Ġabsol": 6584,
      "ilation": 6585,
      "exp": 6586,
      "Ġce": 6587,
      "ema": 6588,
      "ĠWorks": 6589,
      "Ġcomputers": 6590,
      "icide": 6591,
      "dden": 6592,
      "Ġforests": 6593,
      "Ġbroken": 6594,
      "ĠEliz": 6595,
      "oured": 6596,
      "Ġvital": 6597,
      "Ġincl": 6598,
      "opher": 6599,
      "isk": 6600,
      "oven": 6601,
      "ropol": 6602,
      "Ġchapter": 6603,
      "urches": 6604,
      "Ġtopics": 6605,
      "ĠPhiladelphia": 6606,
      "Ġenemy": 6607,
      "Ġhaz": 6608,
      "Ġnetworks": 6609,
      "yan": 6610,
      "Ġstarts": 6611,
      "Ġassistance": 6612,
      "outs": 6613,
      "Ġadvert": 6614,
      "Ġshell": 6615,
      "Ġconscious": 6616,
      "Ġassigned": 6617,
      "osph": 6618,
      "Ġkm": 6619,
      "ĠLead": 6620,
      "Ġfly": 6621,
      "Ġdecline": 6622,
      "Ġpig": 6623,
      "ĠUnivers": 6624,
      "ĠHun": 6625,
      "Ġsubstance": 6626,
      "Ġtransmission": 6627,
      "weight": 6628,
      "Ġcolors": 6629,
      "Ġthoughts": 6630,
      "%)": 6631,
      "Ġuniverse": 6632,
      "uten": 6633,
      "athy": 6634,
      "98": 6635,
      "Ġdensity": 6636,
      "Ġalumni": 6637,
      "Ġfoundation": 6638,
      "ingly": 6639,
      "Ġaccident": 6640,
      "Ġtreatments": 6641,
      "Ġelectron": 6642,
      "asp": 6643,
      "ĠJones": 6644,
      "indu": 6645,
      "Ġsecure": 6646,
      "uous": 6647,
      "anes": 6648,
      "text": 6649,
      "Ġdance": 6650,
      "Ġraise": 6651,
      "cope": 6652,
      "Ġintellect": 6653,
      "ĠFer": 6654,
      "orrow": 6655,
      "Ġtested": 6656,
      "ĠMuslim": 6657,
      "ĠPrince": 6658,
      "Ġcaptured": 6659,
      "Ġcognitive": 6660,
      "ĠBell": 6661,
      "Ġexpensive": 6662,
      "Ġfiles": 6663,
      "Ġtwenty": 6664,
      "Ġcomposition": 6665,
      "96": 6666,
      "onym": 6667,
      "norm": 6668,
      "inois": 6669,
      "Ġmassive": 6670,
      "Ġsuffer": 6671,
      "erman": 6672,
      "ĠPrize": 6673,
      "ĠSyn": 6674,
      "03": 6675,
      "cul": 6676,
      "Ġinstruments": 6677,
      "Ġu": 6678,
      "ĠPrem": 6679,
      "Ġstre": 6680,
      "ĠMedia": 6681,
      "point": 6682,
      "estyle": 6683,
      "ĠTHE": 6684,
      "Ġemail": 6685,
      "Ġchair": 6686,
      "apping": 6687,
      "Is": 6688,
      "ĠEnter": 6689,
      "Ġdepends": 6690,
      "97": 6691,
      "Ġaccurate": 6692,
      "If": 6693,
      "rors": 6694,
      "Ġ75": 6695,
      "wa": 6696,
      "ĠPass": 6697,
      "ĠGovernor": 6698,
      "ĠLuc": 6699,
      "iology": 6700,
      "Ġcourses": 6701,
      "Ġoral": 6702,
      "antly": 6703,
      "Ġsail": 6704,
      "Ġmarg": 6705,
      "Ġshut": 6706,
      "Ġages": 6707,
      "ĠJr": 6708,
      "Ġsudden": 6709,
      "Ġgained": 6710,
      "',": 6711,
      "Ġfunds": 6712,
      "Ġhousing": 6713,
      "isp": 6714,
      "Ġmuscles": 6715,
      "ĠLew": 6716,
      "ĠLincoln": 6717,
      "ĠFire": 6718,
      "Ġ1966": 6719,
      "Ġowner": 6720,
      "ĠJackson": 6721,
      "Ġroof": 6722,
      "Ġstanding": 6723,
      "da": 6724,
      "Ġfib": 6725,
      "ima": 6726,
      "Ġtheme": 6727,
      "Ġrow": 6728,
      "Ġtracks": 6729,
      "ĠOk": 6730,
      "ifies": 6731,
      "ĠIN": 6732,
      "ĠLine": 6733,
      "Ġpictures": 6734,
      "ronze": 6735,
      "Ġalgorith": 6736,
      "Ġarts": 6737,
      "ĠSI": 6738,
      "ĠHung": 6739,
      "Ġ2023": 6740,
      "Ġhistoric": 6741,
      "Ġentry": 6742,
      "Ġnewly": 6743,
      "Ġfacility": 6744,
      "ĠMD": 6745,
      "Ġwindow": 6746,
      "Ġadopt": 6747,
      "aming": 6748,
      "Ġ37": 6749,
      "ĠFinally": 6750,
      "ĠNative": 6751,
      "ĠKnow": 6752,
      "ounded": 6753,
      "ĠMoon": 6754,
      "Ġemployed": 6755,
      "Ġju": 6756,
      "Ġexpanded": 6757,
      "Ġpossibility": 6758,
      "ipping": 6759,
      "Ġstands": 6760,
      "rison": 6761,
      "Ġrequest": 6762,
      "Ġnaturally": 6763,
      "Ġagencies": 6764,
      "ether": 6765,
      "unct": 6766,
      "ĠEll": 6767,
      "Ġwire": 6768,
      "Ġrecognition": 6769,
      "Ġswim": 6770,
      "Ġequivalent": 6771,
      "Ġbass": 6772,
      "Ġgather": 6773,
      "ĠAsh": 6774,
      "isted": 6775,
      "aph": 6776,
      "Ġopposite": 6777,
      "Ġsuffered": 6778,
      "Ġrecovery": 6779,
      "inction": 6780,
      "Ġmanufacturing": 6781,
      "ĠArm": 6782,
      "Ġimpacts": 6783,
      "ĠCorpor": 6784,
      "Ġvan": 6785,
      "Ġpron": 6786,
      "Ġlesson": 6787,
      "roc": 6788,
      "Ġstages": 6789,
      "Ġmamm": 6790,
      "mann": 6791,
      "ĠBBC": 6792,
      "Ġ>": 6793,
      "Ġresident": 6794,
      "ĠAdv": 6795,
      "ĠBusiness": 6796,
      "Ġattempts": 6797,
      "rance": 6798,
      "atever": 6799,
      "ĠAM": 6800,
      "Ġcombat": 6801,
      "while": 6802,
      "free": 6803,
      "ĠTransport": 6804,
      "Ġprocedures": 6805,
      "ĠChristmas": 6806,
      "alm": 6807,
      "ĠFar": 6808,
      "ĠAgricult": 6809,
      "Ġfilled": 6810,
      "Ġphotograph": 6811,
      "Ġmonitoring": 6812,
      "Ġvocals": 6813,
      "Ġaer": 6814,
      "ĠGame": 6815,
      "Ġfeelings": 6816,
      "ĠWindows": 6817,
      "Ġbaseball": 6818,
      "Ġpurchase": 6819,
      "Ġnegot": 6820,
      "Ġlatest": 6821,
      "ĠOfficial": 6822,
      "Ġunp": 6823,
      "uma": 6824,
      "Ġdiversity": 6825,
      "Ġsales": 6826,
      "faces": 6827,
      "ĠSanta": 6828,
      "Ġmoist": 6829,
      "ĠKey": 6830,
      "Ġgreatly": 6831,
      "hyth": 6832,
      "OC": 6833,
      "ĠTrust": 6834,
      "Ġimmun": 6835,
      "ĠIllinois": 6836,
      "Ġbomb": 6837,
      "Ġactors": 6838,
      "Ġopposed": 6839,
      "pet": 6840,
      "fish": 6841,
      "04": 6842,
      "gs": 6843,
      "Ġunderstood": 6844,
      "âĢľ": 6845,
      "ĠAnton": 6846,
      "ĠTeam": 6847,
      "Ġfrag": 6848,
      "othe": 6849,
      "Ġimpossible": 6850,
      "Ġoldest": 6851,
      "name": 6852,
      "Ġinhabit": 6853,
      "ĠFigure": 6854,
      "Ġpublication": 6855,
      "chen": 6856,
      "BN": 6857,
      "Ġvaccine": 6858,
      "Ġinner": 6859,
      "Ġspeaking": 6860,
      "ira": 6861,
      "asy": 6862,
      "ĠMult": 6863,
      "Ġgranted": 6864,
      "Ġapproved": 6865,
      "ador": 6866,
      "Ġsculpt": 6867,
      "Ġcrucial": 6868,
      "ĠEqu": 6869,
      "Ġrub": 6870,
      "Ġdiverse": 6871,
      "Ġsubsequently": 6872,
      "ffee": 6873,
      "ĠFestival": 6874,
      "ocation": 6875,
      "Ġdistricts": 6876,
      "Ġaffects": 6877,
      "Ġagency": 6878,
      "Ġtex": 6879,
      "Ġalt": 6880,
      "amber": 6881,
      "ĠGh": 6882,
      "Ġserves": 6883,
      "Ġbenefic": 6884,
      "Ġpersonnel": 6885,
      "iah": 6886,
      "ĠArmen": 6887,
      "asters": 6888,
      "cribed": 6889,
      "ĠStation": 6890,
      "ĠIns": 6891,
      "Ġsubsequent": 6892,
      "Ġmyth": 6893,
      "Ġinternet": 6894,
      "Ġvaluable": 6895,
      "Ġfacilit": 6896,
      "ĠLow": 6897,
      "ĠWilliams": 6898,
      "Ġcab": 6899,
      "roid": 6900,
      "ded": 6901,
      "ĠCapt": 6902,
      "CS": 6903,
      "Ġdoor": 6904,
      "ĠExper": 6905,
      "Ġinfluenced": 6906,
      "shire": 6907,
      "ibilities": 6908,
      "ĠBa": 6909,
      "Ġoverl": 6910,
      "ĠAh": 6911,
      "Ġaren": 6912,
      "Ġholding": 6913,
      "ĠLiter": 6914,
      "Ġweapons": 6915,
      "Ġnutrients": 6916,
      "ĠLo": 6917,
      "66": 6918,
      "Ġdiscip": 6919,
      "Gen": 6920,
      "Ġsentence": 6921,
      "Ġsought": 6922,
      "ĠMethod": 6923,
      "ĠMilitary": 6924,
      "Ġoperate": 6925,
      "ĠAP": 6926,
      "He": 6927,
      "Ġagree": 6928,
      "Ġproduces": 6929,
      "Ġbiggest": 6930,
      "Ġdefense": 6931,
      "Ġexecutive": 6932,
      "Ġaf": 6933,
      "Ġlandscape": 6934,
      "Ġbones": 6935,
      "ĠElizabeth": 6936,
      "ĠFund": 6937,
      "ĠRam": 6938,
      "Ġunus": 6939,
      "thur": 6940,
      "phone": 6941,
      "Ġprincipal": 6942,
      "Ġcreative": 6943,
      "Ġlaunch": 6944,
      "gi": 6945,
      "ieval": 6946,
      "Ġcolour": 6947,
      "ĠEss": 6948,
      "Ġ1963": 6949,
      "Ġinjuries": 6950,
      "Ġpump": 6951,
      "ĠCrit": 6952,
      "Ġcurriculum": 6953,
      "Ġtall": 6954,
      "Ġmand": 6955,
      "Ġcapture": 6956,
      "called": 6957,
      "Ġstored": 6958,
      "bec": 6959,
      "Ġdeploy": 6960,
      "ĠPot": 6961,
      "ester": 6962,
      "Ġcovers": 6963,
      "Ġinvolving": 6964,
      "Ġmit": 6965,
      "una": 6966,
      "ĠIV": 6967,
      "Ġrecognize": 6968,
      "As": 6969,
      "icip": 6970,
      "ĠSign": 6971,
      "Ġextract": 6972,
      "Ġdecrease": 6973,
      "2006": 6974,
      "Ġthousand": 6975,
      "Ġcrick": 6976,
      "Ġexperiments": 6977,
      "from": 6978,
      "ĠPolish": 6979,
      "Ġ38": 6980,
      "ĠEs": 6981,
      "Ġcurren": 6982,
      "Ġcatch": 6983,
      "Ġturns": 6984,
      "ĠFed": 6985,
      "Ġappeal": 6986,
      ".;": 6987,
      "tario": 6988,
      "Ġdream": 6989,
      "Ġjourney": 6990,
      "2005": 6991,
      "Ġinspired": 6992,
      "eries": 6993,
      "Ġmunicipality": 6994,
      "gov": 6995,
      "Ġearliest": 6996,
      "Ġimmediate": 6997,
      "Ġerror": 6998,
      "Ġpush": 6999,
      "Ġattached": 7000,
      "Ġmaintenance": 7001,
      "ĠEc": 7002,
      "izon": 7003,
      "produ": 7004,
      "ĠIndepend": 7005,
      "No": 7006,
      "tra": 7007,
      "ĠCirc": 7008,
      "raining": 7009,
      "ascular": 7010,
      "Ġgenerated": 7011,
      "oples": 7012,
      "Ġstring": 7013,
      "Ġsuitable": 7014,
      "Ġalle": 7015,
      "Ġvs": 7016,
      "cknow": 7017,
      "Ġstruggle": 7018,
      "Ġaqu": 7019,
      "Ġcompounds": 7020,
      "lav": 7021,
      "Ġunless": 7022,
      "Ġscored": 7023,
      "Ġsole": 7024,
      "ĠAdditionally": 7025,
      "ais": 7026,
      "ĠDemocratic": 7027,
      "02": 7028,
      "including": 7029,
      "Ġvon": 7030,
      "Ġobtain": 7031,
      "abled": 7032,
      "Ġopposition": 7033,
      "ĠColorado": 7034,
      "Ġsurvive": 7035,
      "Ġclubs": 7036,
      "Ġimplementation": 7037,
      "ING": 7038,
      "Ġcomprehensive": 7039,
      "ĠMP": 7040,
      "AA": 7041,
      "abul": 7042,
      "Ġarchae": 7043,
      "ĠRay": 7044,
      "Ġharvest": 7045,
      "Ġindex": 7046,
      "Ġcircuit": 7047,
      "dis": 7048,
      "icate": 7049,
      "Ġcards": 7050,
      "Ġfashion": 7051,
      "body": 7052,
      "Ġtemple": 7053,
      "ĠMean": 7054,
      "Ġexists": 7055,
      "Ġcrim": 7056,
      "ĠMembers": 7057,
      "Ġneighborhood": 7058,
      "Ġstudio": 7059,
      "Ġcircumstances": 7060,
      "hop": 7061,
      "Ġille": 7062,
      "Ġsick": 7063,
      "Ġenzym": 7064,
      "ĠField": 7065,
      "Ġreceiving": 7066,
      "Ġtheore": 7067,
      "Ġclassical": 7068,
      "Ġwhereas": 7069,
      "Ġswitch": 7070,
      "Ġfill": 7071,
      "Ġconqu": 7072,
      "iy": 7073,
      "Ġble": 7074,
      "Ġslowly": 7075,
      "agram": 7076,
      "Ġindicates": 7077,
      "Ġmillions": 7078,
      "Sc": 7079,
      "Ġcommitted": 7080,
      "Ġsupposed": 7081,
      "ĠOntario": 7082,
      "Ġwitness": 7083,
      "Ġpainting": 7084,
      "atern": 7085,
      "ĠWeek": 7086,
      "Ġencounter": 7087,
      "Ġ33": 7088,
      "Ġrecy": 7089,
      "ila": 7090,
      "Ġ1962": 7091,
      "Ġsumm": 7092,
      "CD": 7093,
      "ĠSimilar": 7094,
      "Ġremark": 7095,
      "Ġapprec": 7096,
      "Ġconcrete": 7097,
      "bar": 7098,
      "ĠSa": 7099,
      "Ġpup": 7100,
      "irt": 7101,
      "Ġconfirmed": 7102,
      "ĠDue": 7103,
      "ĠFair": 7104,
      "Ġmaintained": 7105,
      "ivated": 7106,
      "Ġbudget": 7107,
      "ĠAI": 7108,
      "Ġrivers": 7109,
      "Ġspr": 7110,
      "Ġmechanism": 7111,
      "esis": 7112,
      "Ġsight": 7113,
      "Ġsmart": 7114,
      "Ġment": 7115,
      "Ġpassing": 7116,
      "Ġingred": 7117,
      "77": 7118,
      "Ġdatabase": 7119,
      "Ã±": 7120,
      "ĠSecretary": 7121,
      "han": 7122,
      "Ġ65": 7123,
      "SP": 7124,
      "Ġhem": 7125,
      "Ġdelay": 7126,
      "ĠCreek": 7127,
      "Ġcategory": 7128,
      "Ġdebate": 7129,
      "uster": 7130,
      "Ġtons": 7131,
      "yles": 7132,
      "Ġtranslation": 7133,
      "ĠTurkish": 7134,
      "Ġhelpful": 7135,
      "Ġcoastal": 7136,
      "mes": 7137,
      "Ġexclus": 7138,
      "such": 7139,
      "Ġelections": 7140,
      "pread": 7141,
      "ĠTake": 7142,
      "ĠShow": 7143,
      "bell": 7144,
      "Ġsections": 7145,
      "Ġoutcomes": 7146,
      "then": 7147,
      "Ġtalking": 7148,
      "Ġfifth": 7149,
      "iÄ": 7150,
      "ĠStudy": 7151,
      "Ġsyndrome": 7152,
      "Ġreaders": 7153,
      "Ġstable": 7154,
      "ampion": 7155,
      "2007": 7156,
      "ults": 7157,
      "Ġlect": 7158,
      "Ġsupplies": 7159,
      "Ġtrained": 7160,
      "Ġdefend": 7161,
      "ĠNether": 7162,
      "itter": 7163,
      "Ġabund": 7164,
      "ĠBulgar": 7165,
      "EP": 7166,
      "Ġlake": 7167,
      "vironments": 7168,
      "Ġconsistent": 7169,
      "ĠDaniel": 7170,
      "Ġrecip": 7171,
      "Ġantibiot": 7172,
      "ĠMinistry": 7173,
      "Ġprepare": 7174,
      "Ġbran": 7175,
      "Ġparticipate": 7176,
      "ĠLanguage": 7177,
      "ĠUk": 7178,
      "Ġfruits": 7179,
      "ented": 7180,
      "ĠDub": 7181,
      "Ġaccel": 7182,
      "ĠSpring": 7183,
      "ĠVictoria": 7184,
      "Ġgrav": 7185,
      "ĠMexican": 7186,
      "ĠJon": 7187,
      "Ġleaf": 7188,
      "izer": 7189,
      "tage": 7190,
      "ja": 7191,
      "Ġindeed": 7192,
      "ĠPrim": 7193,
      "Ġratio": 7194,
      "Ġlimits": 7195,
      "Ġframework": 7196,
      "Ġneck": 7197,
      "Ġcloser": 7198,
      "itled": 7199,
      "Ġseeing": 7200,
      "ĠHave": 7201,
      "Ġofficially": 7202,
      "Ġdepth": 7203,
      "ĠTelevision": 7204,
      "Ġbrand": 7205,
      "ĠWilson": 7206,
      "2000": 7207,
      "Ġpool": 7208,
      "Ġtransportation": 7209,
      "Ġlegislation": 7210,
      "))": 7211,
      "town": 7212,
      "Ġtransferred": 7213,
      "Ġfertil": 7214,
      "Ġtoler": 7215,
      "ĠNever": 7216,
      "ĠProp": 7217,
      "ĠRog": 7218,
      "Ġvac": 7219,
      "Ġvessels": 7220,
      "usal": 7221,
      "ĠHospital": 7222,
      "HO": 7223,
      "Ġchildhood": 7224,
      "idespread": 7225,
      "Ġescape": 7226,
      "ĠSenate": 7227,
      "Ġproved": 7228,
      "ĠJean": 7229,
      "Ġdesire": 7230,
      "Ġveter": 7231,
      "ÅŁ": 7232,
      "idae": 7233,
      "ĠArgent": 7234,
      "Ġdefic": 7235,
      "Ġgal": 7236,
      "ĠPlease": 7237,
      "ito": 7238,
      "urning": 7239,
      "zech": 7240,
      "Ġmos": 7241,
      "ĠCorps": 7242,
      "ulin": 7243,
      "Ġlessons": 7244,
      "ading": 7245,
      "ĠBol": 7246,
      "Ġtexts": 7247,
      "Ġdifficulty": 7248,
      "ĠAff": 7249,
      "Ġsupports": 7250,
      "Ġacknow": 7251,
      "ĠEngineering": 7252,
      "ĠMic": 7253,
      "olve": 7254,
      "89": 7255,
      "Ġusage": 7256,
      "Ġdistributed": 7257,
      "Ġflower": 7258,
      "Ġahead": 7259,
      "Ġroyal": 7260,
      "Ġfossil": 7261,
      "aints": 7262,
      "Ġpip": 7263,
      "Ġinstalled": 7264,
      "%.": 7265,
      "Ġwaves": 7266,
      "ĠRen": 7267,
      "Ph": 7268,
      "Ġpregnancy": 7269,
      "Ġdesigns": 7270,
      "Ġphotos": 7271,
      "Ġgone": 7272,
      "sey": 7273,
      "Ġdoctors": 7274,
      "outheast": 7275,
      "ĠKeep": 7276,
      "Ġassistant": 7277,
      "IL": 7278,
      "Ġdust": 7279,
      "Ġsupplement": 7280,
      "Ġmedications": 7281,
      "Ġru": 7282,
      "hav": 7283,
      "orous": 7284,
      "Ġstudying": 7285,
      "Ġsurvival": 7286,
      "Ġbehaviour": 7287,
      "Ġnurs": 7288,
      "Ġhockey": 7289,
      "Ġnone": 7290,
      "ervative": 7291,
      "Ġcriminal": 7292,
      "Ġrelation": 7293,
      "ects": 7294,
      "ghan": 7295,
      "Ġ400": 7296,
      "Ġtank": 7297,
      "Ġpurchased": 7298,
      "Ġenhance": 7299,
      "Ġfellow": 7300,
      "ushed": 7301,
      "Ġcomparison": 7302,
      "Ġconference": 7303,
      "Ġ;": 7304,
      "real": 7305,
      "].": 7306,
      "Ġprompt": 7307,
      "BT": 7308,
      "Ġ1948": 7309,
      "Ġcryst": 7310,
      "Ġteen": 7311,
      "Ġsignals": 7312,
      "asive": 7313,
      "ĠSet": 7314,
      "Ġallerg": 7315,
      "orses": 7316,
      "Ġgenerate": 7317,
      "ĠClimate": 7318,
      "ĠHistoric": 7319,
      "Ġinject": 7320,
      "antry": 7321,
      "Ġhydro": 7322,
      "Ġhydrogen": 7323,
      "Ġtips": 7324,
      "Ġsky": 7325,
      "Ġguard": 7326,
      "Ġmoon": 7327,
      "Ġlosing": 7328,
      "Ġalongside": 7329,
      "Ġaffil": 7330,
      "ĠVietnam": 7331,
      "ictionary": 7332,
      "vard": 7333,
      "Ġobst": 7334,
      "ĠTay": 7335,
      "Ġshift": 7336,
      "Ġinsurance": 7337,
      "ĠGirl": 7338,
      "ĠArticle": 7339,
      "pat": 7340,
      "don": 7341,
      "Ġwine": 7342,
      "iger": 7343,
      "arn": 7344,
      "Ġpull": 7345,
      "RC": 7346,
      "Ġdism": 7347,
      "Ġacting": 7348,
      "Ġconventional": 7349,
      "Ġtournament": 7350,
      "Ġlie": 7351,
      "There": 7352,
      "ĠGreece": 7353,
      "Ġ1944": 7354,
      "Ġdomain": 7355,
      "rimination": 7356,
      "Ġoffering": 7357,
      "ker": 7358,
      "ĠUt": 7359,
      "ĠGuide": 7360,
      "Ġundert": 7361,
      "ko": 7362,
      "ĠNic": 7363,
      "You": 7364,
      "Ġstatistics": 7365,
      "des": 7366,
      "Ġcloud": 7367,
      "tles": 7368,
      "Ã¡n": 7369,
      "Ġsweet": 7370,
      "ĠVe": 7371,
      "Ġregulations": 7372,
      "56": 7373,
      "lements": 7374,
      "ĠCE": 7375,
      "Ġconcluded": 7376,
      "ĠAud": 7377,
      "ĠShort": 7378,
      "ls": 7379,
      "ĠPract": 7380,
      "Ġdiox": 7381,
      "Ġadequ": 7382,
      "Ġtrigger": 7383,
      "Ġfeat": 7384,
      "Ġhypothes": 7385,
      "Ġpercentage": 7386,
      "?âĢĿ": 7387,
      "hma": 7388,
      "Ġprohib": 7389,
      "Ġsensitive": 7390,
      "ĠSunday": 7391,
      "inking": 7392,
      "Ġwildlife": 7393,
      "otes": 7394,
      "uther": 7395,
      "Ġflo": 7396,
      "Ġ1961": 7397,
      "Ġfer": 7398,
      "Ġargued": 7399,
      "Wh": 7400,
      "Ġbot": 7401,
      "Ġdates": 7402,
      "Ġmyster": 7403,
      "Ġdrawn": 7404,
      "Ġcreates": 7405,
      "ĠIslamic": 7406,
      "Ġvisited": 7407,
      "Ġprevention": 7408,
      "Ġsettled": 7409,
      "Ġcultures": 7410,
      "rav": 7411,
      "Ġsacr": 7412,
      "acher": 7413,
      "aded": 7414,
      "Sh": 7415,
      "ĠDif": 7416,
      "ĠPoland": 7417,
      "Ġafford": 7418,
      "Ġstick": 7419,
      "rates": 7420,
      "ĠLocal": 7421,
      "ĠVill": 7422,
      "owing": 7423,
      "Ġexplo": 7424,
      "Ġdrawing": 7425,
      "ĠPlant": 7426,
      "Ġsomewhat": 7427,
      "ĠBridge": 7428,
      "Ġwww": 7429,
      "Ġbanks": 7430,
      "Ġspaces": 7431,
      "Ġimproving": 7432,
      "eenth": 7433,
      "Ġinfected": 7434,
      "ĠThird": 7435,
      "ĠDC": 7436,
      "ĠConvention": 7437,
      "Ġconnections": 7438,
      "Ġregarded": 7439,
      "Ġmode": 7440,
      "ĠPy": 7441,
      "Ġepisodes": 7442,
      "Ð°": 7443,
      "ĠAccess": 7444,
      "Ġwants": 7445,
      "Ġinches": 7446,
      "ĠNetherlands": 7447,
      "Ġcoun": 7448,
      "Ġneu": 7449,
      "itzer": 7450,
      "Ġminister": 7451,
      "ĠOrganization": 7452,
      "'m": 7453,
      "spe": 7454,
      "illy": 7455,
      "ĠNight": 7456,
      "Ġlaboratory": 7457,
      "Ġburied": 7458,
      "ishment": 7459,
      "opl": 7460,
      "ĠKong": 7461,
      "Ġdamaged": 7462,
      "ĠMir": 7463,
      "Ġenvironments": 7464,
      "ĠFurthermore": 7465,
      "ĠAlf": 7466,
      "Ġacids": 7467,
      "riers": 7468,
      "Ġwidespread": 7469,
      "Ġmac": 7470,
      "Ġstores": 7471,
      "anger": 7472,
      "ĠArea": 7473,
      "cyclop": 7474,
      "Ġnotable": 7475,
      "ighth": 7476,
      "Ġblocks": 7477,
      "teries": 7478,
      "ĠVar": 7479,
      "power": 7480,
      "Ġinsects": 7481,
      "'.": 7482,
      "93": 7483,
      "Ġmigr": 7484,
      "aked": 7485,
      "ĠMaster": 7486,
      "Ġjump": 7487,
      "Ġben": 7488,
      "ĠCost": 7489,
      "Cl": 7490,
      "ivate": 7491,
      "ĠBoy": 7492,
      "Ġdecor": 7493,
      "2010": 7494,
      "Ġboys": 7495,
      "but": 7496,
      "xual": 7497,
      "Ġsharing": 7498,
      "Ġvariable": 7499,
      "ĠBuilding": 7500,
      "Ġengaged": 7501,
      "iro": 7502,
      "ollo": 7503,
      "ĠCountry": 7504,
      "htm": 7505,
      "unc": 7506,
      "ĠVideo": 7507,
      "Ġroughly": 7508,
      "ocated": 7509,
      "ĠKansas": 7510,
      "ĠHeart": 7511,
      "Ġfewer": 7512,
      "Ġdoubt": 7513,
      "ĠIndians": 7514,
      "ĠMountain": 7515,
      "ĠÅ": 7516,
      "Ġcrow": 7517,
      "Ġfalse": 7518,
      "ĠTam": 7519,
      "ennis": 7520,
      "Ġguidelines": 7521,
      "Ġaccum": 7522,
      "Ġrecept": 7523,
      "ĠAgency": 7524,
      "Ġdecide": 7525,
      "Ġinteraction": 7526,
      "âĢĻ.": 7527,
      "aret": 7528,
      "Ġheavily": 7529,
      "Ġchrom": 7530,
      "net": 7531,
      "ĠBetween": 7532,
      "ĠCreat": 7533,
      "Eng": 7534,
      "key": 7535,
      "Ġnutrition": 7536,
      "Ġmarkets": 7537,
      "Ġresolution": 7538,
      "Ġbond": 7539,
      "Ġdigest": 7540,
      "iov": 7541,
      "Ġbattery": 7542,
      "ĠFather": 7543,
      "Ġtrip": 7544,
      "ML": 7545,
      "ĠMarg": 7546,
      "Ġhappy": 7547,
      "agen": 7548,
      "Ġearned": 7549,
      "lik": 7550,
      "ĠCzech": 7551,
      "Ġminim": 7552,
      "cling": 7553,
      "OL": 7554,
      "Ġzero": 7555,
      "Ġcoordin": 7556,
      "ĠConnect": 7557,
      "Ġexped": 7558,
      "Ġjur": 7559,
      "forcement": 7560,
      "left": 7561,
      "acent": 7562,
      "Ġfab": 7563,
      "arsh": 7564,
      "Ã¢": 7565,
      "ĠColon": 7566,
      "riend": 7567,
      "Ġcolleagues": 7568,
      "92": 7569,
      "ĠHand": 7570,
      "ĠChristians": 7571,
      "Ġwalking": 7572,
      "urd": 7573,
      "Ġorient": 7574,
      "Ġdownload": 7575,
      "eli": 7576,
      "Ġflav": 7577,
      "Ġcamera": 7578,
      "Ġretired": 7579,
      "ĠFilms": 7580,
      "Ġemployment": 7581,
      "ĠSab": 7582,
      "itals": 7583,
      "ĠPrime": 7584,
      "cons": 7585,
      "ION": 7586,
      "Ġintake": 7587,
      "67": 7588,
      "ĠSometimes": 7589,
      "ommod": 7590,
      "Ġplus": 7591,
      "ĠGuard": 7592,
      "Ġsemi": 7593,
      "ĠClark": 7594,
      "Ġhall": 7595,
      "Ġdestruction": 7596,
      "Ġsevent": 7597,
      "Ġcontributed": 7598,
      "ĠConfed": 7599,
      "Ġwish": 7600,
      "law": 7601,
      "Ġstrongly": 7602,
      "ĠJoe": 7603,
      "ĠBad": 7604,
      "Ġenable": 7605,
      "Ġdipl": 7606,
      "coming": 7607,
      "Ġfolk": 7608,
      "ĠRos": 7609,
      "ĠSus": 7610,
      "Ġinters": 7611,
      "ĠBru": 7612,
      "Ġ55": 7613,
      "Ġshif": 7614,
      "iatric": 7615,
      "ĠRod": 7616,
      "ĠMedal": 7617,
      "atri": 7618,
      "Ġdebt": 7619,
      "Ġlisten": 7620,
      "Ġcarrying": 7621,
      "2004": 7622,
      "Ġintellectual": 7623,
      "ĠPu": 7624,
      "ami": 7625,
      "lected": 7626,
      "Ġnavig": 7627,
      "Ġdefeat": 7628,
      "zed": 7629,
      "ĠTheatre": 7630,
      "Ġcalcium": 7631,
      "Ġmolecules": 7632,
      "ĠAdministration": 7633,
      "64": 7634,
      "Ġlaid": 7635,
      "ĠChampionships": 7636,
      "ĠOF": 7637,
      "Ġfinds": 7638,
      "Ġfrequent": 7639,
      "Ġcategories": 7640,
      "word": 7641,
      "Ġ150": 7642,
      "Ġtiny": 7643,
      "Ġparticipation": 7644,
      "Ġdioxide": 7645,
      "Ġfasc": 7646,
      "ĠFace": 7647,
      "ĠAdam": 7648,
      "Ġmales": 7649,
      "Ġvide": 7650,
      "ĠRepublican": 7651,
      "Ġcustomers": 7652,
      "omach": 7653,
      "Ġworse": 7654,
      "ĠNorway": 7655,
      "ographical": 7656,
      "Ġmatters": 7657,
      "Ġyield": 7658,
      "Ġengage": 7659,
      "ĠContin": 7660,
      "nesota": 7661,
      "ĠDer": 7662,
      "87": 7663,
      "ications": 7664,
      "ĠSher": 7665,
      "Ġrising": 7666,
      "ĠSon": 7667,
      "ĠAmaz": 7668,
      "osion": 7669,
      "Ġskill": 7670,
      "Ġsod": 7671,
      "Ġguarant": 7672,
      "ĠTyp": 7673,
      "Ġmedication": 7674,
      "Ġ1942": 7675,
      "Ġmachines": 7676,
      "Ġintegrated": 7677,
      "ogether": 7678,
      "dule": 7679,
      "Ġdriver": 7680,
      "ĠQuest": 7681,
      "ĠAT": 7682,
      "Ġrelief": 7683,
      "ĠKorean": 7684,
      "ĠLewis": 7685,
      "ĠLin": 7686,
      "Ġagent": 7687,
      "sts": 7688,
      "Ġplane": 7689,
      "Ġhandle": 7690,
      "Ġkilling": 7691,
      "Ġvisitors": 7692,
      "ĠBand": 7693,
      "Ġmining": 7694,
      "Ġ1958": 7695,
      "being": 7696,
      "Ġly": 7697,
      "asts": 7698,
      "Ġroads": 7699,
      "Ġphysics": 7700,
      "soft": 7701,
      "Ġdrain": 7702,
      "operation": 7703,
      "ĠHay": 7704,
      "Ġpassage": 7705,
      "scale": 7706,
      "ori": 7707,
      "Ġvictims": 7708,
      "Ġaw": 7709,
      "eman": 7710,
      "....": 7711,
      "Ġplot": 7712,
      "Ġabst": 7713,
      "Ġearthqu": 7714,
      "encing": 7715,
      "alo": 7716,
      "Ġuniform": 7717,
      "ĠSchools": 7718,
      "Ġdemonstrated": 7719,
      "Ġorders": 7720,
      "Ġpretty": 7721,
      "ĠCancer": 7722,
      "Ġtruly": 7723,
      "ardens": 7724,
      "Ġmanif": 7725,
      "ĠRef": 7726,
      "Ġreactions": 7727,
      "idges": 7728,
      "agan": 7729,
      "ĠHeb": 7730,
      "Ġconverted": 7731,
      "Ġreaching": 7732,
      "ĠFac": 7733,
      "Ġrestaur": 7734,
      "Ġoptim": 7735,
      "Ġinhib": 7736,
      "Ġhighlight": 7737,
      "ĠInit": 7738,
      "Ġindicated": 7739,
      "Ġcou": 7740,
      "elve": 7741,
      "ĠPur": 7742,
      "Ġestate": 7743,
      "Ġwarming": 7744,
      "Ġcrown": 7745,
      "ao": 7746,
      "Ġnan": 7747,
      "Ġseconds": 7748,
      "ĠIP": 7749,
      "Ġengineer": 7750,
      "Ġmagnetic": 7751,
      "hand": 7752,
      "ĠDam": 7753,
      "Ġcontinuous": 7754,
      "hedule": 7755,
      "Ġneither": 7756,
      "worth": 7757,
      "ĠMinnesota": 7758,
      "ĠPersonal": 7759,
      ".|": 7760,
      "dr": 7761,
      "lete": 7762,
      "ĠPope": 7763,
      "Ġinflammation": 7764,
      "ĠType": 7765,
      "Ġ1959": 7766,
      "hythm": 7767,
      "Ġanswers": 7768,
      "Ġcorner": 7769,
      "Ġkit": 7770,
      "ĠStart": 7771,
      "Ġsynthes": 7772,
      "Ð¾": 7773,
      "ĠFarm": 7774,
      "Ġcarb": 7775,
      "ĠChristianity": 7776,
      "Ġpapers": 7777,
      "Ġdelivered": 7778,
      "Ġinhabitants": 7779,
      "uits": 7780,
      "Ġinher": 7781,
      "adron": 7782,
      "uese": 7783,
      "Ġconsiderable": 7784,
      "Ġalph": 7785,
      "ĠDuke": 7786,
      "Ġjudge": 7787,
      "ĠCP": 7788,
      "Ġtermin": 7789,
      "iability": 7790,
      "Ġregul": 7791,
      "Ġmodified": 7792,
      "Ġcommittee": 7793,
      "itudes": 7794,
      "Ġtheories": 7795,
      "Ġliterary": 7796,
      "Ġinvestigation": 7797,
      "Ġdental": 7798,
      "ĠHard": 7799,
      "Ġcomments": 7800,
      "Ġprofessionals": 7801,
      "Ġprove": 7802,
      "Ġchurches": 7803,
      "Ġfemales": 7804,
      "ressive": 7805,
      "Ġsolve": 7806,
      "Ġfiction": 7807,
      "ĠBos": 7808,
      "Ġstrict": 7809,
      "thod": 7810,
      "Ġadvent": 7811,
      "ĠStephen": 7812,
      "FC": 7813,
      "Ġ34": 7814,
      "Ġartificial": 7815,
      "Ġhealthcare": 7816,
      "abits": 7817,
      "avery": 7818,
      "Ġcoffee": 7819,
      "ĠIndiana": 7820,
      "ĠAgain": 7821,
      "aven": 7822,
      "Ġnoise": 7823,
      "ĠMarine": 7824,
      "people": 7825,
      "ĠOnline": 7826,
      "ĠChapter": 7827,
      "Ġrefused": 7828,
      "onto": 7829,
      "itative": 7830,
      "ĠLog": 7831,
      "2008": 7832,
      "also": 7833,
      "Ġfiber": 7834,
      "Ġ1947": 7835,
      "Ġmeters": 7836,
      "ĠAfghan": 7837,
      "IP": 7838,
      "ĠMike": 7839,
      "Ġintervention": 7840,
      "Ġframe": 7841,
      "Ġadministrative": 7842,
      "Ġpoem": 7843,
      "esity": 7844,
      "ĠCho": 7845,
      "Ġ1956": 7846,
      "Ġindustries": 7847,
      "ĠSyd": 7848,
      "Ġnecessarily": 7849,
      "olester": 7850,
      "Ġfought": 7851,
      "Ġincident": 7852,
      "Ġorganisms": 7853,
      "Re": 7854,
      "Ġsched": 7855,
      "Ġbringing": 7856,
      "Ġprogramme": 7857,
      "ĠJacob": 7858,
      "Ġwilling": 7859,
      "94": 7860,
      "zona": 7861,
      "ĠBah": 7862,
      "Ġboost": 7863,
      "western": 7864,
      "theless": 7865,
      "Ġterror": 7866,
      "Ġoccupied": 7867,
      "pton": 7868,
      "2009": 7869,
      "Ġlegs": 7870,
      "elly": 7871,
      "HS": 7872,
      "ĠSem": 7873,
      "OM": 7874,
      "ĠBalt": 7875,
      "writer": 7876,
      "Ġbeliefs": 7877,
      "Ġinvolve": 7878,
      "Ġmathematics": 7879,
      "otyp": 7880,
      "Ġearn": 7881,
      "hus": 7882,
      "iva": 7883,
      "idance": 7884,
      "Ġprev": 7885,
      "Ġdesignated": 7886,
      "VD": 7887,
      "Ġfaced": 7888,
      "Ġdropped": 7889,
      "ĠHong": 7890,
      "oric": 7891,
      "ĠMach": 7892,
      "quarters": 7893,
      "ĠAlbert": 7894,
      "Ġconsumers": 7895,
      "using": 7896,
      "Ġserver": 7897,
      "Ġfilter": 7898,
      "ĠNob": 7899,
      "Ġchoices": 7900,
      "Ġturning": 7901,
      "Ġattempted": 7902,
      "itarian": 7903,
      "UN": 7904,
      "ĠRegional": 7905,
      "ymph": 7906,
      "ĠWalk": 7907,
      "ova": 7908,
      "ĠBarb": 7909,
      "aver": 7910,
      "ĠManc": 7911,
      "yo": 7912,
      "Ġpeoples": 7913,
      "rary": 7914,
      "Ġaccessible": 7915,
      "aired": 7916,
      "ruption": 7917,
      "Ġsurve": 7918,
      "gans": 7919,
      "Ġbranches": 7920,
      "Ġremote": 7921,
      "Ġcenters": 7922,
      "Ġ1941": 7923,
      "Ġsession": 7924,
      "Ġcod": 7925,
      "earing": 7926,
      "Ġaccommod": 7927,
      "Ġcalling": 7928,
      "Ġmoves": 7929,
      "Ġexception": 7930,
      "Ġmountains": 7931,
      "Ġgovernor": 7932,
      "Ġ1939": 7933,
      "apse": 7934,
      "Ġheads": 7935,
      "Ġfaculty": 7936,
      "Ġreign": 7937,
      "ĠSel": 7938,
      "aine": 7939,
      "center": 7940,
      "Ġobservations": 7941,
      "Ġinterpretation": 7942,
      "De": 7943,
      "bro": 7944,
      "Ġongoing": 7945,
      "Ġresponses": 7946,
      "Ġaged": 7947,
      "Ġid": 7948,
      "Ġtea": 7949,
      "athan": 7950,
      "ĠNext": 7951,
      "Ġobjective": 7952,
      "essions": 7953,
      "ĠBall": 7954,
      "Ġ1957": 7955,
      "Ġcutting": 7956,
      "Ġfishing": 7957,
      "inth": 7958,
      "Ġagents": 7959,
      "91": 7960,
      "Ġbread": 7961,
      "Ġfinish": 7962,
      "ĠMarsh": 7963,
      "Ġcollaboration": 7964,
      "akh": 7965,
      "Ġmechanisms": 7966,
      "Ġgradually": 7967,
      "ĠEU": 7968,
      "Ġestablishment": 7969,
      "olesterol": 7970,
      "Ġgap": 7971,
      "ĠMoreover": 7972,
      "etics": 7973,
      "Ġstroke": 7974,
      "Ġspending": 7975,
      "Å¡": 7976,
      "enh": 7977,
      "Ġtrials": 7978,
      "Ġinstructions": 7979,
      "Ġexplanation": 7980,
      "uties": 7981,
      "Ġharmful": 7982,
      "otype": 7983,
      "Ġ48": 7984,
      "Ġrepair": 7985,
      "Ġpsychological": 7986,
      "itual": 7987,
      "Ġreader": 7988,
      "Ġmatches": 7989,
      "Ġcampus": 7990,
      "Ġperforming": 7991,
      "Ġdelivery": 7992,
      "Se": 7993,
      "2011": 7994,
      "ĠAvenue": 7995,
      "ĠFle": 7996,
      "spec": 7997,
      "anged": 7998,
      "Ġraw": 7999,
      "Ġdescent": 8000,
      "ĠCorporation": 8001,
      "Ġrocks": 8002,
      "that": 8003,
      "Ġ1943": 8004,
      "bean": 8005,
      "zy": 8006,
      "Ġforth": 8007,
      "ĠPhot": 8008,
      "Ġbeneficial": 8009,
      "Ġknows": 8010,
      "ropolitan": 8011,
      "Ġcourts": 8012,
      "ĠBan": 8013,
      "ĠHarvard": 8014,
      "Ġdollars": 8015,
      "ĠKim": 8016,
      "ĠGulf": 8017,
      "rowing": 8018,
      "ĠBaseball": 8019,
      "ĠLook": 8020,
      "Ġinvasion": 8021,
      "ĠRepresent": 8022,
      "ĠRun": 8023,
      "2003": 8024,
      "Ġmemb": 8025,
      "ells": 8026,
      "Ġlots": 8027,
      "Ġspin": 8028,
      "ĠGolden": 8029,
      "nia": 8030,
      "ogs": 8031,
      "Ġspons": 8032,
      "Ġ1946": 8033,
      "ĠRab": 8034,
      "Ġcircle": 8035,
      "Ġkilomet": 8036,
      "Ġrarely": 8037,
      "How": 8038,
      "Ġfurn": 8039,
      "Ġtraditions": 8040,
      "adesh": 8041,
      "Ġcharged": 8042,
      "Ġsatellite": 8043,
      "making": 8044,
      "Ġpreval": 8045,
      "Ġcarefully": 8046,
      "Ġsons": 8047,
      "Ġdiff": 8048,
      "ĠTaylor": 8049,
      "Ġending": 8050,
      "oom": 8051,
      "ixture": 8052,
      "eller": 8053,
      "Ġconclusion": 8054,
      "For": 8055,
      "istical": 8056,
      "Ġdefine": 8057,
      "Ġunderlying": 8058,
      "ĠSweden": 8059,
      "ĠWik": 8060,
      "ĠTok": 8061,
      "Ġclim": 8062,
      "Ġnerve": 8063,
      "ĠRelig": 8064,
      "ĠPortuguese": 8065,
      "ĠUnf": 8066,
      "ĠDisease": 8067,
      "2012": 8068,
      "ĠSydney": 8069,
      "ĠLearn": 8070,
      "ĠRoute": 8071,
      "Ġgrounds": 8072,
      "omatic": 8073,
      "Ġmaps": 8074,
      "Ġimplemented": 8075,
      "icious": 8076,
      "Ġconsumer": 8077,
      "Ġkingdom": 8078,
      "ĠHistorical": 8079,
      "Ġnest": 8080,
      "Ġoblig": 8081,
      "fts": 8082,
      "Ġstomach": 8083,
      "Ġvulnerable": 8084,
      "ĠCall": 8085,
      "ĠPed": 8086,
      "Ġvolcan": 8087,
      "Ã¼r": 8088,
      "amps": 8089,
      "ĠSupport": 8090,
      "Ġelectro": 8091,
      "ĠOrigin": 8092,
      "Ã¸": 8093,
      "ĠComple": 8094,
      "ĠSteve": 8095,
      "Ġfeeding": 8096,
      "ĠEarl": 8097,
      "aneous": 8098,
      "Ġsignificance": 8099,
      "ĠSav": 8100,
      "Ġdrama": 8101,
      "Ġspoken": 8102,
      "ĠArthur": 8103,
      "dam": 8104,
      "ĠTable": 8105,
      "Ġlifestyle": 8106,
      "Ġhistorian": 8107,
      "ĠArizona": 8108,
      "Ġcoverage": 8109,
      "Ġcolonial": 8110,
      "ĠRaj": 8111,
      "issance": 8112,
      "Ġboat": 8113,
      "Ġdisturb": 8114,
      "ĠWars": 8115,
      "ĠChile": 8116,
      "ĠCheck": 8117,
      "Ġuniversities": 8118,
      "ĠISBN": 8119,
      "emble": 8120,
      "occ": 8121,
      "anted": 8122,
      "Ġimprovement": 8123,
      "Ġresc": 8124,
      "Ġvillages": 8125,
      "Ġpreced": 8126,
      "Ġestimates": 8127,
      "ĠArchitect": 8128,
      "Ġfunctional": 8129,
      "enna": 8130,
      "gressive": 8131,
      "Ġcosm": 8132,
      "emeter": 8133,
      "Ġpoison": 8134,
      "ĠApple": 8135,
      "Ġconj": 8136,
      "utation": 8137,
      "Ġempt": 8138,
      "Le": 8139,
      "uscript": 8140,
      "Ġminute": 8141,
      "Ġaccompan": 8142,
      "ĠProtection": 8143,
      "Ġseparated": 8144,
      "Ġunusual": 8145,
      "Ġgenerations": 8146,
      "Ġpresentation": 8147,
      "ourage": 8148,
      "Ġwasn": 8149,
      "Ġindigenous": 8150,
      "ranean": 8151,
      "lims": 8152,
      "Ġrecru": 8153,
      "Ġphoto": 8154,
      "ji": 8155,
      "ĠLie": 8156,
      "Ġemotions": 8157,
      "ĠApollo": 8158,
      "ĠLat": 8159,
      "Ġneuro": 8160,
      "Ġ1955": 8161,
      "ĠâĨ": 8162,
      "VID": 8163,
      "Ġrice": 8164,
      "Ġbought": 8165,
      "Ġabsence": 8166,
      "Ġadapted": 8167,
      "Ġcandidate": 8168,
      "ensed": 8169,
      "Ġlayers": 8170,
      "ĠUnlike": 8171,
      "thew": 8172,
      "low": 8173,
      "Ġrig": 8174,
      "Ġgenus": 8175,
      "ĠEconomic": 8176,
      "Ġtaste": 8177,
      "stic": 8178,
      "ĠHan": 8179,
      "ĠFreder": 8180,
      "Ġpanel": 8181,
      "Ġdraft": 8182,
      "eting": 8183,
      "Ġevaluation": 8184,
      "uled": 8185,
      "Ġseeking": 8186,
      "Ġtitles": 8187,
      "Ġmechanical": 8188,
      "Ġcaught": 8189,
      "Ġappoint": 8190,
      "jo": 8191,
      "ĠVi": 8192,
      "ĠTurn": 8193,
      "ĠKir": 8194,
      "def": 8195,
      "ĠDavis": 8196,
      "ĠTax": 8197,
      "ĠLive": 8198,
      "Ġpilot": 8199,
      "iations": 8200,
      "Ġproof": 8201,
      "Ġinteractions": 8202,
      "Ġpromoted": 8203,
      "Ġepid": 8204,
      "Ġbeauty": 8205,
      "Ġsmooth": 8206,
      "Ġcas": 8207,
      "urric": 8208,
      "ĠPage": 8209,
      "68": 8210,
      "?\"": 8211,
      "Ġencouraged": 8212,
      "Ġcommunicate": 8213,
      "itional": 8214,
      "Ġhorses": 8215,
      "antine": 8216,
      "ĠAthlet": 8217,
      "Ġwing": 8218,
      "Ġmaintaining": 8219,
      "Ġmanip": 8220,
      "action": 8221,
      "ivals": 8222,
      "ĠFox": 8223,
      "2001": 8224,
      "Ġvirtual": 8225,
      "rene": 8226,
      "Ġtight": 8227,
      "ĠVit": 8228,
      "Ġparish": 8229,
      "ĠMS": 8230,
      "Ġextension": 8231,
      "Ġtribes": 8232,
      "MP": 8233,
      "inch": 8234,
      "ĠForeign": 8235,
      "Ġsmoking": 8236,
      "istent": 8237,
      "LE": 8238,
      "ilton": 8239,
      "rolled": 8240,
      "Ġtor": 8241,
      "Ġrepresentation": 8242,
      "otton": 8243,
      "Ġfalls": 8244,
      "Ġmolecular": 8245,
      "ammar": 8246,
      "obile": 8247,
      "Ġinspir": 8248,
      "Ġruled": 8249,
      "esides": 8250,
      "58": 8251,
      "ĠDigital": 8252,
      "ĠSS": 8253,
      "Ġbutter": 8254,
      "Ġentertain": 8255,
      "ĠLady": 8256,
      "Ġestimate": 8257,
      "ĠGreg": 8258,
      "Ġoutbre": 8259,
      "2013": 8260,
      "Ġcontrols": 8261,
      "ĠNorwe": 8262,
      "Ġgiant": 8263,
      "Ġwhatever": 8264,
      "inf": 8265,
      "Ġforming": 8266,
      "ĠCastle": 8267,
      "Ġcharacterized": 8268,
      "Ġcompens": 8269,
      "Ġfounder": 8270,
      "Ġcoaches": 8271,
      "ĠChange": 8272,
      "%,": 8273,
      "Ġdispl": 8274,
      "Ġexperimental": 8275,
      "bb": 8276,
      "Ġdanger": 8277,
      "tegr": 8278,
      "ĠManchester": 8279,
      "ĠReal": 8280,
      "Ġsmoke": 8281,
      "ĠAustria": 8282,
      "ĠQueens": 8283,
      "Ġbehaviors": 8284,
      "ĠBh": 8285,
      "acle": 8286,
      "ĠVo": 8287,
      "atal": 8288,
      "ĠEffect": 8289,
      "Ġrelax": 8290,
      "Ġtrains": 8291,
      "pes": 8292,
      "aration": 8293,
      "osh": 8294,
      "ĠAz": 8295,
      "idity": 8296,
      "Ġshock": 8297,
      "Ġinterpre": 8298,
      "Ġmerely": 8299,
      "ĠEmperor": 8300,
      "ĠObs": 8301,
      "Ġvoltage": 8302,
      "oa": 8303,
      "Ġarmed": 8304,
      "Ġcopies": 8305,
      "Ġbroke": 8306,
      "ĠRest": 8307,
      "ĠBishop": 8308,
      "Ġstrike": 8309,
      "door": 8310,
      "Ġclothing": 8311,
      "Ġconcerning": 8312,
      "Ġliv": 8313,
      "isdom": 8314,
      "ĠHum": 8315,
      "Ġsuperior": 8316,
      "Ġprinted": 8317,
      "iÄĩ": 8318,
      "ctive": 8319,
      "Ġassumed": 8320,
      "Ġpoliticians": 8321,
      "Ġmusicians": 8322,
      "ĠIss": 8323,
      "Ġ1949": 8324,
      "ĠMaria": 8325,
      "Ġfacing": 8326,
      "Ġpoetry": 8327,
      "estab": 8328,
      "Ġparliament": 8329,
      "Ġdemonstrate": 8330,
      "Ġflying": 8331,
      "Ġhosted": 8332,
      "Ġcash": 8333,
      "Ġnort": 8334,
      "Ġfulf": 8335,
      "agh": 8336,
      "ĠLes": 8337,
      "ĠPlace": 8338,
      "eor": 8339,
      "Ġoccas": 8340,
      "Ġinterior": 8341,
      "ĠImm": 8342,
      "Ġengines": 8343,
      "ĠRegion": 8344,
      "ĠSix": 8345,
      "Ġdisaster": 8346,
      "ĠAncient": 8347,
      "Ġsingles": 8348,
      "Ġprofile": 8349,
      "Bl": 8350,
      "ĠResources": 8351,
      "unications": 8352,
      "Ġsituated": 8353,
      "Ġtranslated": 8354,
      "Ġdependent": 8355,
      "Ġsup": 8356,
      "ĠLess": 8357,
      "Ġamaz": 8358,
      "foot": 8359,
      "ĠCit": 8360,
      "ĠLy": 8361,
      "olis": 8362,
      "oly": 8363,
      "Ġgluc": 8364,
      "ĠHit": 8365,
      "Ġintent": 8366,
      "ĠLev": 8367,
      "Ġforg": 8368,
      "Ġevil": 8369,
      "amine": 8370,
      "Ġabnorm": 8371,
      "Ġuncertain": 8372,
      "Ġchlor": 8373,
      "ĠHighway": 8374,
      "Ġgro": 8375,
      "Ġpasses": 8376,
      "57": 8377,
      "Ġwheel": 8378,
      "Ġconfidence": 8379,
      "Ġaudio": 8380,
      "Ġputting": 8381,
      "Ġtick": 8382,
      "Ġphysician": 8383,
      ".âĢĻ": 8384,
      "Ġscientist": 8385,
      "Ġmicros": 8386,
      "ĠTemple": 8387,
      "Ġproportion": 8388,
      "Ġphenomenon": 8389,
      "Ðµ": 8390,
      "Ġpione": 8391,
      "angel": 8392,
      "Ġflows": 8393,
      "Ġentitled": 8394,
      "AF": 8395,
      "uzz": 8396,
      "Ġtub": 8397,
      "Ġcats": 8398,
      "Ġrenamed": 8399,
      "Ġtherap": 8400,
      "ĠProduct": 8401,
      "Ġmineral": 8402,
      "Ġburning": 8403,
      "ĠIndones": 8404,
      "2002": 8405,
      "archy": 8406,
      "ĠDick": 8407,
      "umps": 8408,
      "Ġtower": 8409,
      "otal": 8410,
      "Ġviewed": 8411,
      "itely": 8412,
      "Ġconven": 8413,
      "Ġessentially": 8414,
      "ĠPalest": 8415,
      "etary": 8416,
      "Ġevolved": 8417,
      "Ġthanks": 8418,
      "ĠHebrew": 8419,
      "ĠDiv": 8420,
      "Ġstopped": 8421,
      "rac": 8422,
      "Ġcontamin": 8423,
      "ĠConc": 8424,
      "ouri": 8425,
      "Ġrespir": 8426,
      "ĠFa": 8427,
      "ĠStory": 8428,
      "ĠStone": 8429,
      "ĠTai": 8430,
      "ĠHal": 8431,
      "ĠNa": 8432,
      "mod": 8433,
      "usalem": 8434,
      "Ġradical": 8435,
      "Ġminerals": 8436,
      "ĠLind": 8437,
      "ĠModel": 8438,
      "Ġnerv": 8439,
      "ĠEgyptian": 8440,
      "Ġhole": 8441,
      "bourne": 8442,
      "Ġsucceeded": 8443,
      "Ġformula": 8444,
      "achel": 8445,
      "Ġmild": 8446,
      "Ġportray": 8447,
      "Ġvideos": 8448,
      "eld": 8449,
      "âĢĻ,": 8450,
      "Ġdriven": 8451,
      "Ġfract": 8452,
      "Ġchampionship": 8453,
      "grade": 8454,
      "Ġkidney": 8455,
      "53": 8456,
      "Ġstreets": 8457,
      "54": 8458,
      "Ġouter": 8459,
      "trans": 8460,
      "Ġchick": 8461,
      "Ġpreparation": 8462,
      "Ġfeaturing": 8463,
      "ĠUnfortunately": 8464,
      "olds": 8465,
      "Ġsatisf": 8466,
      "ĠFront": 8467,
      "________": 8468,
      "ĠMiller": 8469,
      "ĠPM": 8470,
      "Ġcovering": 8471,
      "Ġfarming": 8472,
      "Ġseemed": 8473,
      "Ġphilos": 8474,
      "Ġtrouble": 8475,
      "Ġmarks": 8476,
      "tw": 8477,
      "ĠMand": 8478,
      "Pro": 8479,
      "ĠPoint": 8480,
      "Ġsubstantial": 8481,
      "Ġadoles": 8482,
      "Ġpharm": 8483,
      "ogy": 8484,
      "Ġ1954": 8485,
      "Ġlists": 8486,
      "Ġourselves": 8487,
      "ĠCareer": 8488,
      "ĠBor": 8489,
      "Ġangle": 8490,
      "chestra": 8491,
      "isd": 8492,
      "ĠFind": 8493,
      "Ġbrings": 8494,
      "contin": 8495,
      "ĠMess": 8496,
      "Ġorbit": 8497,
      "arry": 8498,
      "Ġmessages": 8499,
      "Ġbath": 8500,
      "ĠPit": 8501,
      "Ġrose": 8502,
      "ĠLeon": 8503,
      "Ġ1918": 8504,
      "Ġneur": 8505,
      "Ġbrothers": 8506,
      "On": 8507,
      "Ġindu": 8508,
      "Ġrepresentative": 8509,
      "ĠFrancis": 8510,
      "ĪĴ": 8511,
      "ĠWord": 8512,
      "Ġclassified": 8513,
      "Ġadvis": 8514,
      "Ġasking": 8515,
      "ĠAlber": 8516,
      "Ġsale": 8517,
      "ĠBon": 8518,
      "ĠClick": 8519,
      "aki": 8520,
      "ĠChris": 8521,
      "Ġstructural": 8522,
      "EE": 8523,
      "ĠGarden": 8524,
      "\"|": 8525,
      "Ġrender": 8526,
      "Ġillegal": 8527,
      "Ġabol": 8528,
      "Ġguidance": 8529,
      "Ġdiagnosed": 8530,
      "Ġenl": 8531,
      "Ġbreeding": 8532,
      "Ġsettings": 8533,
      "Ġ1900": 8534,
      "ĠBeach": 8535,
      "Ġscholar": 8536,
      "Ġisolated": 8537,
      "Ġrugby": 8538,
      "ques": 8539,
      "Ġdiscrimination": 8540,
      "erated": 8541,
      "adow": 8542,
      "hedral": 8543,
      "Ġvarieties": 8544,
      "ĠCaptain": 8545,
      "ĠRoss": 8546,
      "Ġthorough": 8547,
      "ĠPeace": 8548,
      "Ġhorizon": 8549,
      "night": 8550,
      "Ġconfig": 8551,
      "irds": 8552,
      "onsin": 8553,
      "ĠMuslims": 8554,
      "Ġsubsid": 8555,
      "71": 8556,
      "83": 8557,
      "Ġtract": 8558,
      "Ġeveryday": 8559,
      "And": 8560,
      "sm": 8561,
      "Ġclar": 8562,
      "ĠCroat": 8563,
      "SS": 8564,
      "Ġritual": 8565,
      "pson": 8566,
      "ĠAbb": 8567,
      "box": 8568,
      "Ġlabour": 8569,
      "Ġpregnant": 8570,
      "Ġ1953": 8571,
      "Ġrepresenting": 8572,
      "ĠLt": 8573,
      "ĠAnth": 8574,
      "Ġtargets": 8575,
      "how": 8576,
      "ika": 8577,
      "ailed": 8578,
      "Ġabandoned": 8579,
      "ĠNorwegian": 8580,
      "ois": 8581,
      "Ġblind": 8582,
      "nessee": 8583,
      "isconsin": 8584,
      "Ġsubstances": 8585,
      "Ġconstantly": 8586,
      "iture": 8587,
      "itivity": 8588,
      "Ġcattle": 8589,
      "Ex": 8590,
      "race": 8591,
      "Ġsheet": 8592,
      "Ġexisted": 8593,
      "ĠNut": 8594,
      "Ġdescend": 8595,
      "Ġpronoun": 8596,
      "Ġwrites": 8597,
      "regon": 8598,
      "aug": 8599,
      "ĠArabic": 8600,
      "jan": 8601,
      "raham": 8602,
      "Ġfever": 8603,
      "ĠBrook": 8604,
      "ĠStandard": 8605,
      "Ġfed": 8606,
      "ĠSpirit": 8607,
      "ĠHeritage": 8608,
      "Ġsubstit": 8609,
      "di": 8610,
      "heric": 8611,
      "Ġwindows": 8612,
      "Ġmice": 8613,
      "Ġcholesterol": 8614,
      "after": 8615,
      "burn": 8616,
      "atus": 8617,
      "Ġcensus": 8618,
      "ĠDoes": 8619,
      "ĠPolice": 8620,
      "Ġhabits": 8621,
      "lyn": 8622,
      "Ġretire": 8623,
      "Ġclassic": 8624,
      "When": 8625,
      "ureau": 8626,
      "ĠHawai": 8627,
      "ĠJunior": 8628,
      "61": 8629,
      "aneously": 8630,
      "Ġfavorite": 8631,
      "ĠSant": 8632,
      "ĠPolitical": 8633,
      "ĠCape": 8634,
      "angle": 8635,
      "52": 8636,
      "Ġchest": 8637,
      "ĠConservation": 8638,
      "iterranean": 8639,
      "Ġreturning": 8640,
      "ĠHo": 8641,
      "ĠHig": 8642,
      "ĠTal": 8643,
      "rooms": 8644,
      "ĠDor": 8645,
      "Ġsharp": 8646,
      "ĠSection": 8647,
      "ĠCulture": 8648,
      "Ġformerly": 8649,
      "MA": 8650,
      "Ġprime": 8651,
      "ĠOttoman": 8652,
      "ĠPremier": 8653,
      "ĠOt": 8654,
      "Ġmanagers": 8655,
      "ĠSmall": 8656,
      "ĠMaryland": 8657,
      "tain": 8658,
      "ĠGallery": 8659,
      "ammad": 8660,
      "Ġphosph": 8661,
      "roduction": 8662,
      "Ġ1952": 8663,
      "72": 8664,
      "Ġduty": 8665,
      "ĠInvest": 8666,
      "Ġheritage": 8667,
      "Ġcomedy": 8668,
      "Ġevening": 8669,
      "gon": 8670,
      "Ġfeedback": 8671,
      "Ġreferences": 8672,
      "uber": 8673,
      "Ġ42": 8674,
      "ĠFinal": 8675,
      "Ġslaves": 8676,
      "Ġcontributions": 8677,
      "Ġmood": 8678,
      "74": 8679,
      "Ġloved": 8680,
      "ographer": 8681,
      "Ġadmin": 8682,
      "ĠTennessee": 8683,
      "sis": 8684,
      "ĠToronto": 8685,
      "ĠSource": 8686,
      "ĠAlab": 8687,
      "Ġtempor": 8688,
      "ĠAntar": 8689,
      "Ġcontribution": 8690,
      "Ġstatements": 8691,
      "63": 8692,
      "Ġreliable": 8693,
      "itic": 8694,
      "ĠNY": 8695,
      "ĠRecent": 8696,
      "Ġinformed": 8697,
      "ĠJerusalem": 8698,
      "Ġtropical": 8699,
      "ĠFord": 8700,
      "Ġreviews": 8701,
      "Ġuniversal": 8702,
      "ĠSwedish": 8703,
      "Ġexport": 8704,
      "heimer": 8705,
      "orus": 8706,
      "raine": 8707,
      "ĠDoc": 8708,
      "ĠGil": 8709,
      "Ġworship": 8710,
      "Ġfairly": 8711,
      "ĠHaving": 8712,
      "Ġdent": 8713,
      "Ġrational": 8714,
      "top": 8715,
      "ĠMond": 8716,
      "apel": 8717,
      "Ġbeings": 8718,
      "Ġreturns": 8719,
      "Ġbiology": 8720,
      "Ġremoval": 8721,
      "Ġ120": 8722,
      "ĠBeng": 8723,
      "elfare": 8724,
      "Ġcopper": 8725,
      "UT": 8726,
      "ercury": 8727,
      "Ġattacked": 8728,
      "ĠTru": 8729,
      "ĠCommand": 8730,
      "Ġlosses": 8731,
      "Ġwait": 8732,
      "Ġregulation": 8733,
      "ouses": 8734,
      "lock": 8735,
      "ĠBlood": 8736,
      "ĠMarc": 8737,
      "51": 8738,
      "Ġrely": 8739,
      "Ġconsisting": 8740,
      "Ġelder": 8741,
      "Ġassets": 8742,
      "Ġ1938": 8743,
      "Ġownership": 8744,
      "Ġbreathing": 8745,
      "Ġhunting": 8746,
      "ĠMemorial": 8747,
      "84": 8748,
      "owder": 8749,
      "ĠWisconsin": 8750,
      "acles": 8751,
      "Ġchemistry": 8752,
      "Ġrect": 8753,
      "Ġdisch": 8754,
      "Ġincorporated": 8755,
      "ĠHart": 8756,
      "Ġboundaries": 8757,
      "Ġphrase": 8758,
      "ersion": 8759,
      "ĠCarib": 8760,
      "Ġfabric": 8761,
      "Ġtissues": 8762,
      "annels": 8763,
      "Ġawards": 8764,
      "icing": 8765,
      "Ġthy": 8766,
      "Ġhardware": 8767,
      "ĠConsider": 8768,
      "ĠAL": 8769,
      "Ġstead": 8770,
      "Ġorgans": 8771,
      "Ġnitrogen": 8772,
      "Ġbiod": 8773,
      "Ġchallenging": 8774,
      "bes": 8775,
      "Ġslavery": 8776,
      "Ġhighway": 8777,
      "Ġlegend": 8778,
      "thodox": 8779,
      "Ġbio": 8780,
      "iments": 8781,
      "Ġvariation": 8782,
      "Ġstood": 8783,
      "Ġherself": 8784,
      "Ġdifficulties": 8785,
      "IDS": 8786,
      "III": 8787,
      "Ġwithdraw": 8788,
      "icut": 8789,
      "Ġtot": 8790,
      "Ġsurfaces": 8791,
      "Ġdemands": 8792,
      "Ð¸": 8793,
      "aron": 8794,
      "ĠGer": 8795,
      "ĠBush": 8796,
      "ĠWithout": 8797,
      "utenant": 8798,
      "ĠKentucky": 8799,
      "Ġaccompanied": 8800,
      "ippi": 8801,
      "Ġvariables": 8802,
      "vo": 8803,
      "62": 8804,
      "erted": 8805,
      "ĠCel": 8806,
      "ĠInn": 8807,
      "Ġemphasis": 8808,
      "track": 8809,
      "ĠMediterranean": 8810,
      "Ġusual": 8811,
      "Ġgreenhouse": 8812,
      "Ġcelebrated": 8813,
      "Ġneutral": 8814,
      "73": 8815,
      "Ġuncle": 8816,
      "Ġoppon": 8817,
      "ĠSafety": 8818,
      "ĠOregon": 8819,
      "Ġdating": 8820,
      "ĠEncyclop": 8821,
      "ĠWithin": 8822,
      "ĠSerb": 8823,
      "ampl": 8824,
      "Ġmeasurements": 8825,
      "Ġconstitu": 8826,
      "Ġschedule": 8827,
      "Ġexamination": 8828,
      "ĠNazi": 8829,
      "ĠTrad": 8830,
      "vision": 8831,
      "Ġoutcome": 8832,
      "ĠFormer": 8833,
      "asant": 8834,
      "Ġturb": 8835,
      "ĠFI": 8836,
      "Ġracial": 8837,
      "Ġthreatened": 8838,
      "Ġmanufacturers": 8839,
      "Ġchose": 8840,
      "ials": 8841,
      "owned": 8842,
      "EA": 8843,
      "Ġauton": 8844,
      "Ġexamine": 8845,
      "adder": 8846,
      "Ġdesired": 8847,
      "79": 8848,
      "Ġfro": 8849,
      "Ġrecre": 8850,
      "TA": 8851,
      "Ã£": 8852,
      "anna": 8853,
      "Ġpounds": 8854,
      "icular": 8855,
      "Ġoffices": 8856,
      "Ġaims": 8857,
      "UR": 8858,
      "Ġmm": 8859,
      "ĠSac": 8860,
      "ĠAmendment": 8861,
      "ĠAlabama": 8862,
      "inals": 8863,
      "Ġcommunications": 8864,
      "ĠPict": 8865,
      "Ġpopularity": 8866,
      "Ġgeomet": 8867,
      "ĠHindu": 8868,
      "Ġassembly": 8869,
      "ĠComputer": 8870,
      "orig": 8871,
      "asm": 8872,
      "Ġtemporary": 8873,
      "irus": 8874,
      "Ġstronger": 8875,
      "ĠMississ": 8876,
      "ĠÄ": 8877,
      "olph": 8878,
      "quir": 8879,
      "Ġviruses": 8880,
      "Ġadjacent": 8881,
      "ĠGene": 8882,
      "ĠKu": 8883,
      "Ġca": 8884,
      "ĠView": 8885,
      "emetery": 8886,
      "Con": 8887,
      "ĠPolicy": 8888,
      "Ġcoc": 8889,
      "Ġcited": 8890,
      "Ġtitled": 8891,
      "Ġmine": 8892,
      "istant": 8893,
      "ricted": 8894,
      "Ġparticipated": 8895,
      "abulary": 8896,
      "ĠTrade": 8897,
      "Ġdiameter": 8898,
      "Ġexercises": 8899,
      "ĠMicrosoft": 8900,
      "Ġerrors": 8901,
      "language": 8902,
      "Ġsect": 8903,
      "ĠAnne": 8904,
      "Ġfra": 8905,
      "Ġnick": 8906,
      "Ġslave": 8907,
      "oga": 8908,
      "Ġconsidering": 8909,
      "opes": 8910,
      "ĠLi": 8911,
      "ĠTrack": 8912,
      "Ġpermission": 8913,
      "ĠBrig": 8914,
      "ĠMcG": 8915,
      "Ġdealing": 8916,
      "Ġinfer": 8917,
      "Ġnervous": 8918,
      "ictional": 8919,
      "Ġpresents": 8920,
      "CR": 8921,
      "oids": 8922,
      "herent": 8923,
      "ĠCook": 8924,
      "ĠMath": 8925,
      "Ġtransp": 8926,
      "ĠMatthew": 8927,
      "last": 8928,
      ".'": 8929,
      "iler": 8930,
      "hr": 8931,
      "Ġdies": 8932,
      "gression": 8933,
      "Ġglac": 8934,
      "apped": 8935,
      "Ġarrested": 8936,
      "rant": 8937,
      "vol": 8938,
      "Ġtrav": 8939,
      "hetic": 8940,
      "iner": 8941,
      "Ġhence": 8942,
      "liography": 8943,
      "Ġham": 8944,
      "Ġstyles": 8945,
      "Ġlowest": 8946,
      "Ġtube": 8947,
      "Ġlibr": 8948,
      "Ġmedieval": 8949,
      "Ġmarketing": 8950,
      "east": 8951,
      "Ġconsec": 8952,
      "Ġshore": 8953,
      "Ġdress": 8954,
      "Ġwarning": 8955,
      "Ġordinary": 8956,
      "Sp": 8957,
      "Ġ!": 8958,
      "ĠBrother": 8959,
      "ĠSystems": 8960,
      "81": 8961,
      "Ġtact": 8962,
      "ĠDomin": 8963,
      "aware": 8964,
      "Ġprisoners": 8965,
      "iop": 8966,
      "inces": 8967,
      "ployment": 8968,
      "Ġscheme": 8969,
      "Ġresid": 8970,
      "Ġvocal": 8971,
      "Ġcolonies": 8972,
      "Ġbronze": 8973,
      "Ġseats": 8974,
      "Ġnovels": 8975,
      "ĠStra": 8976,
      "avel": 8977,
      "ĠPrincip": 8978,
      "ĠCOVID": 8979,
      "ĠStock": 8980,
      "ĠProtest": 8981,
      "Ġvictim": 8982,
      "struct": 8983,
      "ĠRight": 8984,
      "ĠMissouri": 8985,
      "ĠEmer": 8986,
      "Ġcontinuing": 8987,
      "Ġpaintings": 8988,
      "ĠDiego": 8989,
      "present": 8990,
      "Ġdecay": 8991,
      "Ġrealize": 8992,
      "Ġconversation": 8993,
      "run": 8994,
      "ĠProm": 8995,
      "Ġfestival": 8996,
      "ĠAlaska": 8997,
      "Ġentrance": 8998,
      "uting": 8999,
      "Ġreplacement": 9000,
      "Ġplain": 9001,
      "insula": 9002,
      "ĠSatur": 9003,
      "Ġlanding": 9004,
      "Ġcomplicated": 9005,
      "Ġtut": 9006,
      "umental": 9007,
      "Ġinterface": 9008,
      "Ġthreats": 9009,
      "Ġheating": 9010,
      "esh": 9011,
      "owa": 9012,
      "ni": 9013,
      "ĠSound": 9014,
      "arks": 9015,
      "iversary": 9016,
      "ĠExec": 9017,
      "bles": 9018,
      "eness": 9019,
      "Ġassume": 9020,
      "Ġdrivers": 9021,
      "Ġcriteria": 9022,
      "Ġfocuses": 9023,
      "Ġdominant": 9024,
      "Ġ64": 9025,
      "82": 9026,
      "oen": 9027,
      "Ġequally": 9028,
      "haust": 9029,
      "Ġpubl": 9030,
      "erald": 9031,
      "Ġprotest": 9032,
      "Ġsitting": 9033,
      "Ġlogic": 9034,
      "Ġcommander": 9035,
      "ario": 9036,
      "Ġobesity": 9037,
      "Ġsimult": 9038,
      "Ġextend": 9039,
      "ensions": 9040,
      "HA": 9041,
      "rained": 9042,
      "Ġton": 9043,
      "Ġflour": 9044,
      "Ġentering": 9045,
      "ĠMun": 9046,
      "ĠMagn": 9047,
      "Ġreduces": 9048,
      "ĠPhilip": 9049,
      "Ġmanuscript": 9050,
      "Ø§": 9051,
      "Ġelsewhere": 9052,
      "Ġcorresponding": 9053,
      "Ġcere": 9054,
      "Ġmeth": 9055,
      "Ġtrend": 9056,
      "acco": 9057,
      "rection": 9058,
      "athered": 9059,
      "Ġprovision": 9060,
      "Ġ1914": 9061,
      "Don": 9062,
      "69": 9063,
      "omot": 9064,
      "Ġbeach": 9065,
      "ĠHans": 9066,
      "Ġnose": 9067,
      "Ġoverw": 9068,
      "Ġmeasurement": 9069,
      "Ġintense": 9070,
      "Ġcastle": 9071,
      "Ġcompound": 9072,
      "Ġcandidates": 9073,
      "BI": 9074,
      "ĠCra": 9075,
      "ĠRu": 9076,
      "Ġadequate": 9077,
      "Ġcharacteristic": 9078,
      "she": 9079,
      "Ġrear": 9080,
      "ĠHell": 9081,
      "ĠMit": 9082,
      "ĠFacebook": 9083,
      "Ġcolony": 9084,
      "Ġrebu": 9085,
      "Ġfix": 9086,
      "Ġabilities": 9087,
      "ĠCentury": 9088,
      "ĠReading": 9089,
      "ritis": 9090,
      "tes": 9091,
      "Ġfalling": 9092,
      "ĠResearchers": 9093,
      "Ġworst": 9094,
      "Ġbreath": 9095,
      "orney": 9096,
      "1999": 9097,
      "Ġemerged": 9098,
      "ĠBuddh": 9099,
      "Ġrecommendations": 9100,
      "Ġfan": 9101,
      "agle": 9102,
      "earch": 9103,
      "ĠSimon": 9104,
      "Ġalleged": 9105,
      "ĠCR": 9106,
      "ĠMoh": 9107,
      "Ġtransmit": 9108,
      "Ġsurvived": 9109,
      "Ġexplicit": 9110,
      "ĠTs": 9111,
      "Ġaccuracy": 9112,
      "Ġwinner": 9113,
      "non": 9114,
      "wich": 9115,
      "Ġeducated": 9116,
      "300": 9117,
      "ĠNap": 9118,
      "Ġpolar": 9119,
      "erto": 9120,
      "Ġpreventing": 9121,
      "Ġshapes": 9122,
      "apore": 9123,
      "ĠAlbum": 9124,
      "Ġarray": 9125,
      "plant": 9126,
      "DS": 9127,
      "Ġtack": 9128,
      "ĠMunicip": 9129,
      "Ġappearances": 9130,
      "Ġwars": 9131,
      "ĠAbraham": 9132,
      "ĠYears": 9133,
      "brid": 9134,
      "Ġmerch": 9135,
      "ambig": 9136,
      "pool": 9137,
      "Ġpersonality": 9138,
      "new": 9139,
      "lah": 9140,
      "Ġles": 9141,
      "emia": 9142,
      "Ġgalax": 9143,
      "59": 9144,
      "Ġbreed": 9145,
      "Ġbegun": 9146,
      "Ġmetabol": 9147,
      "BM": 9148,
      "imm": 9149,
      "izz": 9150,
      "Ġspectrum": 9151,
      "ĠArk": 9152,
      "Ġorb": 9153,
      "Ġaccord": 9154,
      "Ġaimed": 9155,
      "CT": 9156,
      "uels": 9157,
      "lywood": 9158,
      "ersed": 9159,
      "ortion": 9160,
      "ĠPerform": 9161,
      "rix": 9162,
      "ĠConnecticut": 9163,
      "ulus": 9164,
      "ipher": 9165,
      "ibl": 9166,
      "Ġasc": 9167,
      "ilder": 9168,
      "Ġfur": 9169,
      "Ġsuit": 9170,
      "Ġmathematical": 9171,
      "Ġfans": 9172,
      "Ġmoisture": 9173,
      "ĠTit": 9174,
      "achers": 9175,
      "ĠTan": 9176,
      "Ġpray": 9177,
      "Ġampl": 9178,
      "Ġidentification": 9179,
      "Ġ1951": 9180,
      "ĠLyn": 9181,
      "rell": 9182,
      "Ġreward": 9183,
      "ĠAction": 9184,
      "Ġlingu": 9185,
      "ohn": 9186,
      "former": 9187,
      "Ġgrid": 9188,
      "Ġparks": 9189,
      "Ġpiano": 9190,
      "Ġhosp": 9191,
      "erior": 9192,
      "Ġprinting": 9193,
      "endar": 9194,
      "ĠKat": 9195,
      "ĠIdent": 9196,
      "Ġmixture": 9197,
      "Ġingredients": 9198,
      "uct": 9199,
      "ĠMuch": 9200,
      "Ġrooms": 9201,
      "Ġengineers": 9202,
      "Ġalive": 9203,
      "Ġcable": 9204,
      "Ġ39": 9205,
      "ĠÂ·": 9206,
      "Ġpromotion": 9207,
      "ĠSurvey": 9208,
      "Ġvice": 9209,
      "Ġeffectiveness": 9210,
      "ĠDougl": 9211,
      "Ġproven": 9212,
      "domin": 9213,
      "Ġobservation": 9214,
      "ĠSources": 9215,
      "Ġvel": 9216,
      "Ġfavour": 9217,
      "ĠTry": 9218,
      "ĠGro": 9219,
      "lan": 9220,
      "Ġargue": 9221,
      "gence": 9222,
      "Ġmeal": 9223,
      "ifice": 9224,
      "ĠSP": 9225,
      "Ġdemocracy": 9226,
      "ĠKhan": 9227,
      "omed": 9228,
      "Ġforget": 9229,
      "Ġpriest": 9230,
      "Ġpartnership": 9231,
      "Ġinvolvement": 9232,
      "rape": 9233,
      "Ġitem": 9234,
[...]
